/**
  ******************************************************************************
  * @file    wdcnn_data_params.c
  * @author  AST Embedded Analytics Research Platform
  * @date    Wed Feb  8 14:39:35 2023
  * @brief   AI Tool Automatic Code Generator for Embedded NN computing
  ******************************************************************************
  * Copyright (c) 2023 STMicroelectronics.
  * All rights reserved.
  *
  * This software is licensed under terms that can be found in the LICENSE file
  * in the root directory of this software component.
  * If no LICENSE file comes with this software, it is provided AS-IS.
  ******************************************************************************
  */

#include "wdcnn_data_params.h"


/**  Activations Section  ****************************************************/
ai_handle g_wdcnn_activations_table[1 + 2] = {
  AI_HANDLE_PTR(AI_MAGIC_MARKER),
  AI_HANDLE_PTR(NULL),
  AI_HANDLE_PTR(AI_MAGIC_MARKER),
};




/**  Weights Section  ********************************************************/
AI_ALIGNED(32)
const ai_u64 s_wdcnn_weights_array_u64[6860] = {
  0xec21c50bbbcca6d9U, 0x99cdecb19427081cU, 0x5b3e80a13e31030U, 0xc2d9b9bfb7c5d621U,
  0xf0cd19a400bbc2a0U, 0xb9e11ed381c9f7e4U, 0xe2cef21322ffa7fbU, 0xd21da4cadecc26feU,
  0xec1013afd045371bU, 0xe20225fdaff1331eU, 0x5e0ec7f13b5fc13U, 0x22fabe6047abf052U,
  0x3f33a6f347c3cf19U, 0xff23b8ba3314c2ebU, 0x7013dbcc92af5d8U, 0xfafd53eaaf1027f9U,
  0x4d0541bc3c00ebddU, 0xc50b42f547615707U, 0x162b7f3ada3c2203U, 0xcc26cc26ab292d1bU,
  0x8ee2f5213ea1254U, 0x4feab965261ff2d1U, 0xd62b122b7328351aU, 0xb75ef5c4a4bcdf3U,
  0x65fbe71026fe2640U, 0x194752cf38721815U, 0x3b355333def83a2bU, 0x7fff0b25feecf91dU,
  0x133b21fa4454efeeU, 0xe7e3664c1d2372cfU, 0x18de27623bc6546cU, 0x5f5d2c110935fc3eU,
  0x810c40decb4035e5U, 0xdf12d7c3a8424ec5U, 0xe94acfe41d3d30b2U, 0x130dc2f04250c597U,
  0x8c0fc6873cfcdc9U, 0xb3a922282accfa2eU, 0xe896155ab5c7ec1dU, 0xca98e55f82e9060cU,
  0xc20604ebbf104314U, 0xb040eec0d4312cc7U, 0xe30cc316f74bfbc6U, 0x1f4db0076b00e917U,
  0x4448c5ba7f3399d5U, 0x5d9251810ffa0deU, 0xd6a1555e05bc83f0U, 0xcbaa3454dee8d125U,
  0x7fca0055e9ae435bU, 0x40570de27541f011U, 0x21e4ffbcb6b23f9U, 0x5cf5ba4a11d41356U,
  0x27e3163647f2c719U, 0xf748f213db370d1eU, 0xe9ed5260bbc55333U, 0x1e59be044dcdc4fbU,
  0xe1973816a5b9f956U, 0xb1bc03d69ebdd946U, 0x9253edddfded63cU, 0xb2213e9fb4403211U,
  0xbf14e181de12f1c6U, 0x3e13f1b2470af7bfU, 0x2ddbe1c0484bd2b9U, 0x1308bbff2bf4bce8U,
  0x36bcdcd640a7f5d4U, 0xe649e3081afbd8cfU, 0x635f1ced3b5f1f1U, 0xd20ede20c6d042f8U,
  0x4c0560f457e2a512U, 0xf11240c1acfa5db7U, 0xd594ba3324e81a19U, 0xda1ecb3239ec2481U,
  0xc2d8fd359de44a1bU, 0x4be0dbea35faf433U, 0x90241ccd0046ffa3U, 0x2bbbff19c9e83aa8U,
  0x7fe9a83f3fcdcf39U, 0xe72c0edf366ae3afU, 0xcc2f551a6de35d4U, 0xff7bbdf44aad540U,
  0xc36a34d77379571aU, 0xdf1b477f4c5bc4f8U, 0x78db55c5bf32cb4cU, 0x4c9be84f412f0b43U,
  0xab5435b00c73c739U, 0x4043fd3c432ffa74U, 0x71c493f441f036dU, 0xa59e2f5517db077U,
  0x13d3e8b0bcda21d5U, 0x1a1092598bdc9c3aU, 0xe4cd921f31cea8f3U, 0x27e2dba005fa8802U,
  0x9dd865c606c97f31U, 0x1c05c7cf8521b6ebU, 0xd5cc32cfd331d5bcU, 0x1908e2e3fa18c1c3U,
  0x50ce142a110a1ee9U, 0xe745defb0ff7ef47U, 0x22f57daba64f2ddU, 0xc508e126d3d727f8U,
  0x44f5de7f6ca20a2eU, 0xdbf3b7d14d2910ccU, 0x45312002f6280fccU, 0xa2ab73318a7201aU,
  0xfae018991261d6dfU, 0xcbcc182dfcadee59U, 0xb317b01c3cc5fde5U, 0xb10d442a8c24f3ddU,
  0x18bf3dee81c75ed4U, 0x1600eadccfd3d604U, 0x70bda1e1b0adf19U, 0xa5a7e149e5feca18U,
  0x9bead1c6c5b5ebc3U, 0xe2f999d51824a4b5U, 0xd9efefe20228acfdU, 0xdb24dbfcfc06ce1eU,
  0xf703c4e3261b81cfU, 0x32bcd90b45ae8dcaU, 0xc7bfde3bcdba8f39U, 0xebf4e919d2a6f8c2U,
  0x8cf711de88d438e1U, 0xad9f124b81bc2b16U, 0xc9d6f239acb75a48U, 0xf82eccc8061b27f7U,
  0x5b4181ba2630dfd5U, 0x2f05d1d15fc1c2b7U, 0x1fe8ccdb32e7d2fcU, 0x23bd0b06f8d5ec0dU,
  0x228fffff8afU, 0x51bffffff4eU, 0xfffffac8fffffd7dU, 0xfffffa04fffffac7U,
  0xfffff83efffff5dcU, 0xfffff431000000c3U, 0xfffff7b4fffffaf4U, 0xfffffe37fffffe3dU,
  0x472aba04acab2647U, 0xc41633812cfec4f9U, 0x50ee3c1eb72db1c8U, 0xcece61f7f2b51c42U,
  0xe7f94a7f001a24bcU, 0x584809dac1d12ffaU, 0x1ae1d5fcd9120ad1U, 0xeb252f0ddfe1ced7U,
  0xbccc9d8bcfecf10U, 0x2e273681c6f7f4a5U, 0xbf0959fb4c04d3f7U, 0xd50ee6ebb70728aeU,
  0x300b269f1433b322U, 0xde8a11b23e6855faU, 0x1d38bff46d6526a3U, 0x2ed6a4dbb41eb25eU,
  0xc533a1e61f5ba4a1U, 0x138155f202734ee2U, 0x9ea633b881431252U, 0x516e931c734abb15U,
  0x14a63302bc5e5844U, 0x2a6070dfbb1093b3U, 0x4d0efc4c318f041U, 0x1c01e3f23d0a0c7eU,
  0xde4b723545812bc8U, 0x264b913829eec2c6U, 0xdcb4bbb1bd03f8bdU, 0x9b37530b8ccfd0ebU,
  0x8d1391e1d464078cU, 0xf54c4b74dfe4df33U, 0xf93653f3b5f3e8b5U, 0x816df799443a14d2U,
  0x9699713a1041dccU, 0x680eec1404e369f8U, 0x691f5b6aefa5886cU, 0xdc091247192f3a67U,
  0x8a21929ef03def6U, 0xd7c9f84caf07b29fU, 0x67b25a3e14de7f61U, 0x672236c60eade8aaU,
  0xbedeb554d13e8f9U, 0xaa70df60ed31dabU, 0xc1fffee3f4dcf52eU, 0xe797c9914a0481e3U,
  0x3b2245bf6fd2a1c9U, 0x12eefec3fff222d7U, 0x6b4051233eb73d3bU, 0xf8bc9c03fcbb54bdU,
  0xabbdd00838128c45U, 0xda07dcc73aeba345U, 0x344b41812d6c2a38U, 0xd8130767eebb3d5dU,
  0xe7378bd1ff3dd419U, 0x8ffe672701440959U, 0x5c907bd18e87f6aU, 0xe8c696c9f1c88cf5U,
  0xe5ea400ecc516711U, 0xc3452d08efc4254fU, 0xc934de5067d2c943U, 0xc6c34d92e702920aU,
  0x79b4f172e0e8ad4eU, 0x65677f95bbad683fU, 0x5701c20619b516cbU, 0xd217eee76c46143fU,
  0x757559c9a0b8da13U, 0xd847300a25c7511bU, 0xe6050e35d341b5b0U, 0xd61bc814b2db6bd0U,
  0x5a2a352fedc828b5U, 0xd0dcc5f4a120bd2aU, 0x45f250a154bbfccU, 0x9caa812b9ad6604cU,
  0xa4ce4c1349c41dbdU, 0xf07101e10b2a24f4U, 0xfb501825d381a93fU, 0x58d78d5bc2f46731U,
  0x2150dc1ede8a2928U, 0x14d1711cebb6edb1U, 0xf77e1a1e50def48cU, 0xd011c966268b4ca4U,
  0xdc2ae65df0c12739U, 0x64eef1393c2bc999U, 0xcb6f3b9617ab4781U, 0x58638aea871772caU,
  0x48d8f3f233e61402U, 0x3934373d0e192199U, 0x1d4a3f7f0ce010aeU, 0xdb661011040d2f89U,
  0x1af4376b5691ccd7U, 0x3c38d1909aa0eca6U, 0xafba37f3339ab257U, 0x9cfadf26d55450d0U,
  0xdbcaffbcc212819dU, 0xdc0af34aaf4233a3U, 0x223c42eb1bfbd12cU, 0xc84564afc445ce5bU,
  0xdffc3eb12b422ddbU, 0xbe31fe161f14c313U, 0x52d3d736dfb5e12bU, 0xf732233454240948U,
  0x6d5ffecbb9cf46bbU, 0xf4e6c08158fbe4deU, 0xc8f4aace0a2512b4U, 0x28d5e60ce7019108U,
  0x3fe23b2e801e3b4U, 0xb9ed35c1c05c8142U, 0xe90907c33852a733U, 0xc70cc1b05c39a22cU,
  0xef008247083695b4U, 0x4bcf092477fd4a36U, 0xebed8e4160cbcc8U, 0x3235ea3ceecef7fU,
  0xf04bb248edbd0b83U, 0xb165dfe02cf25751U, 0xb2c66acdb0bddcaU, 0x394c4179d93a1d7dU,
  0x510c0a62e98fa7fdU, 0xd2a136b377f51041U, 0xe3dcba57813d0158U, 0x57daaf13c49012e6U,
  0xbefa26dafe00faf2U, 0x6b1decf4e1603862U, 0x640c1cba4b4c4125U, 0x679c99b2dfe081b7U,
  0x2fa510a2c93624c5U, 0xd34021fc5f38ab53U, 0x96783ead30fdc340U, 0x42ffa97fad146a61U,
  0xf1aaf322df57b24cU, 0x21af515edba8db38U, 0xecb817f8df41be51U, 0xd1c2a79cf0644dedU,
  0x2651d6bacdc2b9afU, 0x42beedb540bb81c1U, 0x4bab684203463e4aU, 0xee183934fdd0f80fU,
  0xd7c5530cdc1bd79cU, 0xf74823e5cc2045f9U, 0x37daad2b13a2ad11U, 0xf0183f3ded2fec3dU,
  0xdac63e196c899beeU, 0xa110c008ceff7f3eU, 0x6821d0009456e27bU, 0xf41ac3bf661e0d1bU,
  0x76d153bef90eb8d7U, 0x5dda64dbf6fa5600U, 0x5164a7fe9d74fdfU, 0x6869b347b8e252ceU,
  0x95775d0301c599fU, 0x1a9908254f04ade8U, 0x378f0e143fa3afc2U, 0xb2b712193a20b59eU,
  0x1256d0b12323b93dU, 0xc2da7a1b184e210eU, 0xc14e50d017b78170U, 0x2ff20bc2ce350e68U,
  0x2b4eac0906fad57fU, 0x71c8630969965210U, 0xab6003e448abc97dU, 0xf04c8a96aad030bU,
  0x3c38e1dd2dee4e28U, 0xafde22bbe28c77dcU, 0x27759ea121e6cab0U, 0xb8a2ada4ba21bf5bU,
  0xd07b129b3472833dU, 0xb4963a7734367fcbU, 0xc06babc4f55f3e91U, 0xf7e93cd0637afd47U,
  0xaebbaa9fc205ffcfU, 0x712492272153e296U, 0x9ae15606156a7925U, 0x1fd5ed9f7b4b1409U,
  0x81b5ef0719d12886U, 0xffc1cbc0a4de9ee2U, 0xd301c4cd1000a730U, 0xde392e251e4fdacbU,
  0x27f3a1ab2df8e304U, 0x54af5e51eec3d24U, 0xbb48dfb7eed50bd2U, 0x81d91d90ce1ac324U,
  0x2af30051093269cfU, 0x7fd0c5ffbec0bf9dU, 0x66214c4d0ad152baU, 0x6827a5a24c39bbadU,
  0x2a4b5bf10facaaa5U, 0xdbdb42e0081d02e8U, 0x51e1f521c3d6e239U, 0xf87f052047e0dd0bU,
  0x281c1a7aac05a7c9U, 0x3be7d308f8ff3d3aU, 0x59f65c12a7cd2537U, 0x336c30bf2d1f1a35U,
  0x810000001dbU, 0xfffff9b600000312U, 0xffffef7d00000df9U, 0xa820000002eU,
  0xfffff4cbfffff386U, 0xfffffc65fffff2d0U, 0x9f0fffff53eU, 0x1bbfffffc77U,
  0x5c3ffffed78U, 0xffffeccdfffff2bdU, 0xfffff873fffff561U, 0xfffff42afffff905U,
  0xfffff5cffffff36dU, 0xfffffe74fffff077U, 0x1c300001087U, 0xfffffdc300000462U,
  0x5bebb4e2c4eaf8b5U, 0xbef8150bd0cdafc3U, 0x35cf354ec536fcadU, 0xbb62bb083dd9d045U,
  0x1516e247e65332b1U, 0xd00b59befcac6eb9U, 0xbbb7e909c02f5131U, 0x1f1013724f1fe0dU,
  0x58e3befc816407edU, 0x33e548b8defac70eU, 0xdb134effd1ff2ffbU, 0xbaed101b4cbd3dfaU,
  0x24d9c40c81fdccdcU, 0xcea3bebfa03ddd1U, 0xc115af111316cdc1U, 0x21043f010c41c6efU,
  0x111ff965b82c0aadU, 0xfc1d3d181dee2417U, 0x26d4addb03131632U, 0xf2105edee0c22bebU,
  0x18c916d3ce303518U, 0x69071e3c2135fd33U, 0xe838c20fe905e6f2U, 0x15f6e9423df9e1c8U,
  0xdf15bb3a07037fc9U, 0xc4a32231ff7f2bbU, 0x416e9c82949d100U, 0x2d53e6220c15c120U,
  0xfed9d1eafafafbdaU, 0xbacf4ae4bd1fe2e0U, 0xe23e0b36b2d8e0cbU, 0xcae8faf9ead7f3cfU,
  0x18eaf114b90c0c0cU, 0xd33c4b2deb21f910U, 0xc3e7ceb9e90ac20aU, 0xfd0cc1bfc5fd143aU,
  0x25fe17c0824dd20aU, 0x27474b47024b20e8U, 0xf62e4f45eed61c3eU, 0xf8f628f629e20f05U,
  0x12d8becdf8207f0dU, 0xf4df2c09fdf6deccU, 0x2f44600de1ffdcd5U, 0x605f1f82a3e1fd1U,
  0xc8f302f2b2eb3fccU, 0xc6f1d9de2424ccd1U, 0x302f5c4000305aeU, 0xb0080211d32603ffU,
  0xfa211d207f0217f3U, 0xc3ed0108e6f717b9U, 0xf71e0fd111ea2004U, 0xec1ff121b0dced29U,
  0xe635f81114d61b13U, 0x21e10dce09dc24d0U, 0x29e5cff6f8c5fcddU, 0x45d4eb16efefb1eaU,
  0xfe56c9414bb88dd8U, 0xceead42eb12ad607U, 0x2b26e8fecbf9effaU, 0x4433f832ba09a400U,
  0x140e632bd4f84915U, 0xdb6746eb81cd1434U, 0xbdf913ea082921e1U, 0xdffb55b915681c28U,
  0x6bf52368d20de1adU, 0xfff7290057004b24U, 0x54f1be52161a107eU, 0xe4041ef30e230c52U,
  0x2bfed59bce5758d3U, 0xfa25305743a54e48U, 0xc6c4aec7dcedcb53U, 0xe2b52be735a4c500U,
  0xfd4dcecf161381ddU, 0xfaf93c3ae6d710bbU, 0x18d2af22ed1000d5U, 0x3c49ec2ac2f3addeU,
  0x1f3537f50d14af36U, 0x6e50a5eafca532cU, 0xcadb9f11b931443dU, 0xdf46b605c34a05dfU,
  0x4d4dbe4aaa3cd609U, 0x2d39fdf3fa24e4b1U, 0x10fecb30373a1941U, 0x74faccdd3181d5aU,
  0x2924ecba270ee90aU, 0x4b12e2e1ecf48e4U, 0xc3e33626fe173c16U, 0xebfb0c401d05220aU,
  0xd7ae14e6212d0f25U, 0x10fdd5fd81fa3e34U, 0xb6f42139dbdfece3U, 0xe4324b00e4e3d0d4U,
  0x42e20d120d90bdeU, 0xc707ffabd8ef0c00U, 0xb7c1133ca1abfb08U, 0xbf5eed409c5ec02U,
  0x42251ecae25ad1d5U, 0xfff5c0763126bee9U, 0x36d01143074715d4U, 0x55ea60c1e4cf51e5U,
  0xfdfae832084b42a2U, 0xea18f6ef1e4dfb16U, 0xfc111b2fedf01414U, 0x24ad3322160f43ddU,
  0x33d6e78d30e6f781U, 0x51d142f0a14dfccU, 0xefab22deb61d09c7U, 0xc0c137d61ff932ffU,
  0xb9ae13b297f7bed6U, 0x12efcfdf5c38074bU, 0x47d733e063dad50dU, 0xcafeeb0ef8e3ed2aU,
  0x58c04a81999f163aU, 0xf357541b305033b7U, 0x305609d9755ed3f0U, 0x3dc904979917493fU,
  0xb8f054a210899a4aU, 0x1627b8f5406bae5bU, 0xf41e5da76ad2df4aU, 0xf02f3e2524dbf1d5U,
  0xf7e300b906d0d2d7U, 0xc919474e13322344U, 0x45fa61cd21ebd0e9U, 0xd10dc1212e3efc07U,
  0xafafc24b201668d9U, 0xf5c24b04fc1dfc06U, 0xe177f444f11d01aU, 0xe8c6eeff0529042eU,
  0xb4d0f8f82fe9e31dU, 0xedca2f043bc31c24U, 0x37b24f0bf6d01447U, 0xe626b9f3c5ae0810U,
  0x196a1fe636c5f104U, 0x3916b2dbbef671e4U, 0xf5ccc9e835815636U, 0xda51b345d82c3228U,
  0xcfa20ed64a050ad5U, 0x34c7f7e3b805fc4dU, 0xa224e048c10c0e56U, 0x38c769f32cd30306U,
  0x114bb7d4df24181eU, 0xb212bde3f24442b3U, 0xc204cb1633150721U, 0x282940f5c4ffdd25U,
  0x18909c5e09ddede2U, 0x7bd2f6e8e5aedc1fU, 0xe84a1c1670ff1b53U, 0xd9cecc64ac64636U,
  0x1f4749fc47152b02U, 0xeb6fdbf910d658c7U, 0xcb59d04bd37f201aU, 0x2e77591115d4f432U,
  0xf8acfb312d290cb6U, 0x5400d35f7037a83fU, 0xf7aa2b1ac1dcf706U, 0xf7ff09220cc51b1bU,
  0xeb1702115ac666e3U, 0xcc10271ed62cc213U, 0x81b3e2cbbca6251bU, 0x262b05cc171507cfU,
  0xb2bee2df44ee960eU, 0x34bd1127e6a2f105U, 0x89042c35bfead121U, 0x1aeead50f910e3f8U,
  0xe9032ef343d949e0U, 0xbbe13a1edad12519U, 0xeac80e1f11102636U, 0xf02bb9f3b3c6c3deU,
  0xd21dffda790d070bU, 0xe3e730d5c33e7bd3U, 0xc628e7e2ebc1272aU, 0xd523bde4fd4b31c2U,
  0xbb29d6e75c28b8deU, 0xd7f5ba5a02de6906U, 0x3434d11ae9df594fU, 0x17055d1e46052329U,
  0xf619ecfa7f38debbU, 0x9ab3d91fba1018c6U, 0xc3cf1150fdfeef1dU, 0x2b5345482efcbd47U,
  0xd030fbfad5bee1afU, 0x3df100159708ccf5U, 0x53c4e5f8bc021441U, 0xecf343f9df0df3c1U,
  0xf2dbddc3e600e4ecU, 0xb71afe2ce5d6f92aU, 0x4adae5c8ab17e8c1U, 0xbd8157a83945cfc6U,
  0xb1b8f7e3f23be79bU, 0x310f13c4dcece01bU, 0x12f312d39a1c46edU, 0xd29f6a92acd54ceU,
  0x53cef7b4fb2f43eeU, 0x14434b533a1308f7U, 0x2f253f08194ef2d3U, 0x38c34abc0e2c0600U,
  0x11de50d9c30cabf9U, 0xe4162f213f48e14aU, 0xfddf7fc1516e9fefU, 0x49bf2de422fa2836U,
  0xebef16e3aeb9f8d5U, 0xfc17d3ded83c3706U, 0x2164af8e20da122U, 0xd007cf160055fe05U,
  0x943619ab6b12a03cU, 0x4208aae4debd1350U, 0x2ee571d1233ae25eU, 0x708bdcc60b4540bdU,
  0x39bd3cace5ece8c9U, 0xcce6ae19e1e267c1U, 0xff270df2c65114beU, 0x74d04ff99bf31ebaU,
  0xee2a483371d2eee5U, 0x6e0f382942765f45U, 0x6b3d493c027455dbU, 0x7f286e54edcbd8ddU,
  0x380dcd40ea40241eU, 0x14fcf0c839e45abeU, 0xf2ef18dc41fc3aa4U, 0xee57c5452809ade2U,
  0x1a3bec04e5ebf0e5U, 0x2ed0f3601dd7b702U, 0xb41e5307705030e0U, 0xedd26050be240f7U,
  0xcc16b1d417e8eb9cU, 0xf3b7b08fe106cdd1U, 0xbef5a40681c507d4U, 0xaa1f4e0e15fcaacfU,
  0xfce7ecebf900fbf0U, 0xa3b231660d5eee2bU, 0x18e7f1311254be5aU, 0x3825f3f10f3ec2f3U,
  0x372a59df4cc90a21U, 0xe8c72cf726250fc2U, 0xc020e4391a19b5f3U, 0x35f5c7f6cb10453dU,
  0xe9021d9c531dd403U, 0x81c1e9e1d71267d9U, 0x312a40eff8fa083eU, 0x1bba0eb90d57d035U,
  0xfa685ea1e7ab017bU, 0xfe54582b002318b1U, 0xd3dbd33f822bfc3U, 0x21770dd1b0369d52U,
  0xdb57efe6e9258310U, 0xcf7437f4936b5cfU, 0x3a0be4f50057dae7U, 0xea4329cb142d104fU,
  0x2cc419d7ea9ecf3eU, 0xb5b8e7f39036dac1U, 0x1d06d6d6385b22ceU, 0x57e311fe21fea3bfU,
  0xadfe5308529ee01U, 0xeeafe6665feb1fceU, 0xa7ba5e1bb7151481U, 0xc21e91fe58dacffcU,
  0xab1308cbe051e411U, 0xcbe839ac3c03ee40U, 0xc3b94ed9c63f04b0U, 0x92f913e2fa970e5cU,
  0x77d205bfd36d03daU, 0xecec124417fdd513U, 0xcd1e4ee79ff8b6bfU, 0x285d524361165ff0U,
  0xdbcab42bca4959fdU, 0xed26e36377e83bc7U, 0xd3001fe9cd160ddcU, 0xcda5aea1ba3e256U,
  0x4dd5b7c2cc3d9335U, 0xabe18c7a1e5c7c8U, 0x81f9f13f3fe41bcdU, 0x203828f819f5b6c8U,
  0xf00306271bd70239U, 0x27f8dd280ee1efd1U, 0x3513ecbed9f44e45U, 0x277de405b7aeace8U,
  0xddfbf4bc30d21505U, 0x5924ff204c54dbf3U, 0xff05e32ccb1ed9e0U, 0x48f2d9b6b729d8ebU,
  0x200623c319177724U, 0x41d31606026ede7U, 0xeb213d18f57fbaf1U, 0x4a1bc500acf0f13bU,
  0xf8ed0315cdb0e4e7U, 0x1032083e1041bd16U, 0xfaf7071a07dadf3aU, 0xe1b0e8e2a1f9f302U,
  0x43dcb6d13b0f7f5aU, 0xebd1b7d54515bfefU, 0x2e2b9a2ab30d62ccU, 0xdd07ca0ab53f1dc3U,
  0xbfb1c35edf60147U, 0xd31ce240bc29f3c5U, 0xbb062ecbeb3acfb0U, 0xef2600c9dabee2ffU,
  0xba01f11800f0f3d4U, 0xe1fcf4f8fa4dfcbfU, 0xcc01d814f53b14d7U, 0x23a14170afcf323U,
  0x41af101cd1d2fefU, 0x614a186650300644U, 0x150405db36f081feU, 0x15edfcfa1c3b0e20U,
  0x402607cee8050d13U, 0xde331627dff505eaU, 0x51ff52e82b2ef62aU, 0x3ae2f304ca2a47e2U,
  0xdd12e3f1bbf516dfU, 0xe7f8f1e62e12fb20U, 0xc1336f1f21ace18U, 0x25d82ca4ee330e22U,
  0x20282fa0cdb0d4cbU, 0x44b065d411ca83c9U, 0x4cde3b39b9210f39U, 0xcb459eb5f60fd528U,
  0xcdec4d4ed2da15bcU, 0x16024c62132e75fdU, 0x2439b4cee8fed14cU, 0x5252af5b0eb62058U,
  0x2938dd30d6fa98eaU, 0x10f3ba4aecf97df4U, 0xbcb6ede649c2a500U, 0xfe0efbd4c07f1ca6U,
  0x38bb0eedfb132db2U, 0x8135be48635f4611U, 0x24571c14e21d8b21U, 0xe1fdc10f50e25e23U,
  0xb9ea05a16ef6dac7U, 0x28520b15f567e1f5U, 0x222c0ddf0b4e8778U, 0x2fd0aab8e1c8000cU,
  0xef07de955fa96904U, 0xc5cd9defba1c03b0U, 0x30f37b316a6cfc33U, 0x551cc5fea47a99f5U,
  0xe6b2ee2cfef30aceU, 0x24f2d143d2ec10cdU, 0xf0eeacc441d8fd22U, 0xfd0eff19fbf10b1aU,
  0x58121a19040f9a18U, 0xb948fa23d3f603ccU, 0xeb198db8c351c15aU, 0x30db440f38bc334eU,
  0x64dc77e9c40d4956U, 0xc2542017f75cf0afU, 0x74230fc810fcd71eU, 0x58dade12c07f2158U,
  0x2354a9232335ddc7U, 0xcded47d2ac3d70e7U, 0xe05a03ea8e25f57fU, 0xd07d9ce3ad4ee4cU,
  0x5a370cdc39abda66U, 0x916ce32ede0e2daU, 0xc244fe054bad4752U, 0xcf503adb34d73efcU,
  0xff5711382004e1eaU, 0x33e2c5b524d25dcbU, 0xdf3ee7d82fd0d7eaU, 0xf58ffb1250ca258U,
  0xfe51500abf16f530U, 0xac1e0458dfcc2b2cU, 0x17283626e223d610U, 0x29020cb9296c58f0U,
  0x20eeeb02d5efb04aU, 0x15454232c3e7cef0U, 0xef1eb0543f4c97fU, 0xee0c06ab55fb5bdcU,
  0x8fb51a1fbb070d17U, 0x4bf328becbdad312U, 0x48d5c34509110c45U, 0xc802fa1ed4c9bbfaU,
  0x1014b04b47c32bffU, 0xaf620c0bbc57cae7U, 0x2a5cb91a54f9db4bU, 0x2c8d411973ba55dU,
  0x615240357f9b4813U, 0x376de1e1e0e96332U, 0xcd5ff611d11fda42U, 0xa75d416df1e2863U,
  0x23b36f52d9e5470U, 0x24c1366ee95bf8b3U, 0xffe0e53ae0e9fe24U, 0xd02c88981ee6f428U,
  0xde229222ca0ade81U, 0xfc0619d92b3433caU, 0x622bb45c3110833U, 0xbd24131529e6ca56U,
  0x45e3cd280204613aU, 0x1cc4c99bd302bcf5U, 0xfdf41ccdb8adcdcaU, 0xc7d443f950d63005U,
  0x3b45c23931ef1eedU, 0xe4f8001f3cb02ccdU, 0x8f2b401bd5da20ddU, 0xd2fb0bb611220fcaU,
  0xede5074a81efda15U, 0x37b262e9ed300d4dU, 0x14052cc5b42f94fdU, 0xabda97ca5c28523cU,
  0xe3f415f19546bfc8U, 0x5cbf41190d111e64U, 0x44bb1d533e230b10U, 0xb23a22fe3aefc951U,
  0x1e43eff7b155f8caU, 0x91fb4e35f7f31efbU, 0xb8d3e8c4a6262fafU, 0x114542ea68001c58U,
  0xc1fffe0f3f1eeccU, 0x813a4a0ae91b332fU, 0xdd21f236a7a6f518U, 0xfd3e941d4931d02fU,
  0x303ac0a0afa00f8U, 0xf3d5e21634a3d33cU, 0xd62f43f054001501U, 0xb6e0d1edffcd1ffaU,
  0xf41db80f2be8b1f3U, 0x8af6402e33f63cd9U, 0xe3092e40e0b60d5cU, 0xc04eeecf37390245U,
  0x902921ebcee70dU, 0xa4bab7cfeb2adf4cU, 0xdc4c4bcffd1d12f9U, 0xd18236ec22732002U,
  0xb5b8ed24503353cbU, 0x68c6234dee5803fcU, 0x5d134bee1642339U, 0xe7af7fe3ef284627U,
  0xf31d5dc94be7ea48U, 0x4d07335726d82837U, 0xfad1ed462e244303U, 0xdba04050f825d8f4U,
  0x3023929201dd4e6U, 0x3ac82df2061e310fU, 0x29f5e0f6ba283910U, 0x16365b2c46c9e316U,
  0x31f63bf3bf30c9c1U, 0xf50ddb7fb616fe48U, 0x37fcfd2053119330U, 0xcd52af41be263f3U,
  0x3a233ce0e6075e3fU, 0xcad4cf0d0d324219U, 0xef2e4ed1481ac6e0U, 0x3f5eaee28612b38U,
  0x1e3bb829d3da3ce3U, 0xf929fffb2f1c60edU, 0xe20ef4c41a4314bdU, 0xe730baa0183f4f2bU,
  0x262946d60111fc36U, 0xd504a82a652f90d0U, 0xffe24a39cdc1451aU, 0xc7c3b5e832035bd4U,
  0xd481cdbe131fffd4U, 0x13cf32a9eb24ed52U, 0x25ba3032eb69de1eU, 0xa2e713fd483e50c2U,
  0x1dda992c9e57e4b9U, 0x98561cf4d9bd0ecdU, 0x16c3da00afd6e426U, 0x9852d5d8abe8fcc6U,
  0x2f5ca130bd6453fU, 0x74cca38d1c381a7U, 0x36c3e02294ccd3a6U, 0xda09c8e857859ee0U,
  0xe46bfc5d26e59ce5U, 0x82647dc6e3e741eU, 0xa26123eefcb9c530U, 0xc20e19422ea5e20bU,
  0x2dda161fbbbc04dcU, 0x1bd2d626376301d7U, 0x3ce021eff2f319caU, 0x13fe25e40c1b26caU,
  0x76ef48b8bb2bd049U, 0x10eb2c0f27e815e3U, 0x3347f400daf5ddcbU, 0x1b1e8e2334d1f23bU,
  0xc1b8cc05e6277fe8U, 0x3b2bff193a40f108U, 0xcbd14cd1050cb9e5U, 0x1500d1c0d6f3241aU,
  0xd0051e223decfdf8U, 0x81020cc8d3fee702U, 0xed44a4f9043e31f0U, 0x180e4833e4d005ecU,
  0xc18114706f5fcf6U, 0x418bcdc05f4ded1U, 0x19f0f52d1dbff746U, 0x29de22ece2edfa21U,
  0x11eff7cf04ce0f3dU, 0xbcebfbfa95e833dfU, 0x36e9fbe8feeae2f0U, 0xaddcd14f60f3625U,
  0xe519eefa10fbb7c2U, 0x27f60926c30e81eeU, 0x29f128dcd7d11ed5U, 0x1ff71709151737ceU,
  0xf8e719de2108f502U, 0xe9f3d9e615d5ff17U, 0x6d11c06c5e7260aU, 0xdcf524142d26d6e0U,
  0xc2f4f912fe07dba0U, 0x29ba1cb9c5e2e3f1U, 0x2ff02e0bc11008efU, 0xf20bffdfecb21ee9U,
  0xefe515dd3d1dfa2aU, 0xdadf09241a4d0c2dU, 0x1c712243fefbedfU, 0x461c0bfcbbc928d8U,
  0x1c21222d00c17fecU, 0xce2118142e57b734U, 0x2e50c92b28e312daU, 0x263a31dde70e22d9U,
  0xd2bf27244704c740U, 0xf5cc2b22e8390bc5U, 0xe0fefbd310eae95fU, 0x4cb7d918af2fc4e5U,
  0x2144ca7f12b36850U, 0xe83ac1fb3ee32619U, 0xe0168f2121c8319bU, 0x70db3439dd4f556U,
  0xde462d6acbfe703U, 0x326dcfc03bd0d0cfU, 0xc034f44410cd17daU, 0xd0f5ab6db0bc9c52U,
  0xc07e9cc60eeb450U, 0xf1eeb9fa2a076754U, 0x9634e55da7c5c337U, 0x2c63a8279dca99cdU,
  0x22d80bba59c5b2e3U, 0xb2b603b72d07050aU, 0x12071d2cf3e7c430U, 0x3dff30ca4462b1cU,
  0xc3f820fa623f5d47U, 0x7ffcd141d5f1e32cU, 0x34ed0218c2590562U, 0x32ed73aa2dcdd4f6U,
  0x6cefcc1487514feaU, 0x2deaa843f712f3f0U, 0x422ceac1474cf516U, 0xd9ed352b1602514dU,
  0xf705440a89fca21cU, 0xf08d45a1fc032f6U, 0x2400aa2bae3afaf9U, 0x13e0edeedc492128U,
  0x1038d9c2e312fa28U, 0x5a5a040b7f2b04efU, 0xd523e5bb35434d47U, 0xfc38de1a1f351b3fU,
  0xd40fe0d62428f9abU, 0x24247e1e7270bdfU, 0x3f7fe02e5f3180dU, 0xff40f5f6e23a280cU,
  0x492c49f12cd8ddeaU, 0xe505bb01ce400d10U, 0xae47814110d6a967U, 0xfe28193d041b12d0U,
  0x1efb1a3858cbc1f6U, 0xc7f71516060b6421U, 0xf864c7db67d6df30U, 0x17e3201255e210feU,
  0xf418e7e435c4dbeeU, 0x951507154aede93dU, 0xc7e0ec284893b0edU, 0xbb0e40c73640273bU,
  0xf0e4c73ec837feecU, 0x16dbe805555a42e8U, 0x6a00032413049202U, 0x27d32dc547203852U,
  0x56b431b7c0dc944cU, 0xc4f4051de2c04024U, 0xbacb5ad745cabcf0U, 0xcdc4f8c0fdfefa18U,
  0x2cdfb52d140d601cU, 0xf43ecd05451ff0ccU, 0xf2e0fece3304d3c4U, 0xebf59d1381f8f704U,
  0xd533452e2cddca2cU, 0x28209aadcecd16caU, 0x4ccc6161e50e433U, 0x45127f07ff091f15U,
  0x32fdb0fdbe23f4aU, 0xc5eafccefc604056U, 0x600c3c49ebcca232U, 0xfdf5db05f13eebaaU,
  0xbd22568c57bbd762U, 0xee285219a5372632U, 0xbb322eec3137a253U, 0x173b70a3d83ccfb1U,
  0xccbfe6e678932ffeU, 0xff46f4cab7562febU, 0xf117e3c13b15d815U, 0xce4c3edbf4354c1dU,
  0xb7a9e9fb7f0433f3U, 0xe24335f61ce3485bU, 0x503cbc0c020ec708U, 0xfad60a15e837f3e7U,
  0xaf4b026d39281e02U, 0xd05acfe300e175eU, 0xcad6ac5e7032442eU, 0x73350c137dd4a00U,
  0xdcd6c3cf0381b1e0U, 0x905822a64523623U, 0x3ec812e3b85d0217U, 0xe9a59d034ca2b23cU,
  0x4d4dcaa6f6b3d9a3U, 0x4761d8a898efdb89U, 0xdabcd7c6dcd13e28U, 0x89bdf2af20182fcaU,
  0xbace40596100dcb5U, 0xee4c46c818ad4485U, 0x39074b30f9d91a31U, 0x87a6b2fed499aeb3U,
  0xe7f0f261cccc27fU, 0x7d02435bfd5641b7U, 0x1d5ad23d1bfbc9d3U, 0xe0cbc9ac84cd22e3U,
  0x57fdb8d4c128d01eU, 0x9cf6140f20c863b2U, 0xf007f32425ade83bU, 0xd933cabe0cc3d741U,
  0xad3f28b1bac0ea50U, 0xea350ffcf75a2213U, 0xdd3e033b1735341fU, 0xdc02af0fc069c470U,
  0xbc9cd8ea2746fec1U, 0x649edd253139c8edU, 0xe6184e2c3e232032U, 0x4dd9d8422b4fe2e2U,
  0x128c4b03dd4df106U, 0x38af421a57db173dU, 0x4ce34247e74af4f4U, 0xd9aded2fddc64eecU,
  0x298150938455f99dU, 0xfd060019b859be0dU, 0x2600f6361a261e54U, 0x6b066a34d0e3e15U,
  0xcb02d0c01017b8f3U, 0xd420f70df7dc6ae8U, 0x34ebdd20d3e0edd8U, 0xb914ee0f1d1f50deU,
  0xd40f1d281a2214e2U, 0x81b09c313284635U, 0xa4d51742c9083f32U, 0xf6bc4cca5240e119U,
  0xbefae7d63a2adaa9U, 0xebdf261d04007f2fU, 0xb8c7231bda0cb5eaU, 0x746f41ce2eef3e5U,
  0x1e00ce07816e16caU, 0x28342ea92ce1291eU, 0xc8faebd4083c1fU, 0x92f227e713ba20daU,
  0xebf3e2f1905362a3U, 0x1b1e02f04c92f249U, 0x1319d53ec2ec1031U, 0xdc1730214fcbf503U,
  0x44d7be260c04fc00U, 0xc0c93028f2a5dc37U, 0xfa2a3bf5b40a200bU, 0x9632f03d2619d342U,
  0xc52207fb5e2c50d4U, 0x2a114d23fabe3352U, 0x4de265d35d18123eU, 0x50451590e612cU,
  0x1cf1c7b6183031ceU, 0xe1e9b10056e1c333U, 0x37bccc22e2f253fbU, 0xbeea29fd2ff23314U,
  0x2cc6cf0a5147ff81U, 0x44a8f8f3f3bdd33fU, 0xf4bc04fce711694bU, 0xf2ad2ce32df859feU,
  0xf5f337f8431b7fd9U, 0xbf07ba1b2431bedaU, 0xded0cf455081d02U, 0xa307f1a23c8b7ecU,
  0xc81902d755c939ccU, 0xc9c29fdb2a1ef91bU, 0x4e0acc3e3fc103e6U, 0xe63dbbdccd1c3420U,
  0xd9eae41253272243U, 0x4be400f5db304b52U, 0x19d2cd3c5b17ddf0U, 0xfed25cc123f4f746U,
  0x1d79f84d0f3ef1a5U, 0xecf47f4ce846f63cU, 0xae1dba42b1b4921eU, 0x4135b316ab3e1200U,
  0x335ecd58b9a2932aU, 0x8a0d569e2aab5dd5U, 0x1ce3cd0cf816f63eU, 0x486ad40dfb09c048U,
  0xbc593ffae1b70ac5U, 0x98fb043f2ca722d8U, 0xdef79f4d03a2ffadU, 0xe87c13418824aa2cU,
  0x3e3e0b028bd51d1eU, 0x3e0022d11ea2cff4U, 0xc2338070fae30c5U, 0x2fd7999d0840e011U,
  0x270ac6c41cfa7f36U, 0x94af72604422e09U, 0xe359e8312ccde2e4U, 0x537d00f2c7e02b43U,
  0x4f59b00ad644db40U, 0xc3c9def96ecf03d5U, 0xb29bb5feecae1643U, 0xde0de7e4ad039c55U,
  0xba49c2bf68e50d48U, 0xad339c7ad606e78dU, 0x332102c1f234d7c7U, 0xd40d55bc9ad6b2feU,
  0xb2f4bdff1dd97f33U, 0x1108f5fbb3f12e19U, 0xa4c1154337ae68afU, 0x481b3fceff2ee195U,
  0xcfe5b0b31e3ec235U, 0x3daf1b4e409bab9U, 0xb1d027bdc41949d9U, 0x96d49c060e089895U,
  0x540d1e43bbd90b19U, 0x18d34a250ee0e628U, 0x2ac2e9062133c50cU, 0x1e2d991fff40c139U,
  0xfcf5cb23ef0d2b2cU, 0xda440ee237d3fdc7U, 0x9cd30cb4c8d781e2U, 0x4ed5bbc508cef44eU,
  0x739e4d54e97c5e7U, 0xb2cbddf7c2bd23c3U, 0x2300e73af3d9b721U, 0x21c8023eff56beeeU,
  0xcf7522e2e0d4fd2U, 0xe0ffe38fbe09a04U, 0xe3416d364c60a9ceU, 0x5cd31500db27374bU,
  0xc4fe1fcb01b78149U, 0xf5d8eb003f0ffbf1U, 0xe61854f438dbbdd6U, 0x2edd3a0a20253ad3U,
  0x40eb278e0cc1682fU, 0xa0f0ef33090f1b0aU, 0x27abf3aa2900bfdbU, 0xcb03b0fb1a4ff1e2U,
  0x10041006b50f5408U, 0x26973061f3fefe8U, 0xa70f81212736e29dU, 0x65f9075ba0e9dd25U,
  0x413ca54a78dfcd9U, 0x284c37f0e5469f1cU, 0xce2398a512d213fbU, 0xe708592907a51909U,
  0x6b02c404b5c5554bU, 0xbe0adb1c32b9f0fdU, 0xcd7003fa9d4ff1cU, 0x3e24841cc69eb09fU,
  0x21083319f5bdced1U, 0x4952cdfc0a45b409U, 0xdf1ef4cd1f3c8b9U, 0x4df2aee9e5d6ce23U,
  0x200b22fd96f7e004U, 0x52252d7204d633baU, 0xf7fe0023dee1fa0dU, 0xd8ee3bd7d869d2feU,
  0x1ad4036481e80ae9U, 0xe819cfd8e0f0e34cU, 0xd7df2bf99c13d6dcU, 0x312814a7153a38b4U,
  0x96100000e90U, 0x54400000c9dU, 0xfffff8d100000985U, 0x14600000811U,
  0xffffeaf1fffffb10U, 0xfffffeecfffffa63U, 0x539ffffe889U, 0x30ffffff02aU,
  0xfffff39cfffff2d5U, 0xffffef4a000004fdU, 0x7dcffffffffU, 0xfffffb2c000013e4U,
  0xfffff69b00000b7dU, 0xffffed33fffffe5cU, 0xfffff0e7fffff3ddU, 0xfffff8d0fffff2ceU,
  0x1c200000265U, 0xfffff7d8ffffef35U, 0xfffff2d9ffffed58U, 0x16f000000c9U,
  0xea00000358U, 0x1585fffff961U, 0xffffebb9fffff104U, 0xebffffed5aU,
  0xffffe905ffffeed5U, 0x5bafffff966U, 0xfffff8f8fffffaa0U, 0xfffff6bf00000cf2U,
  0xc66ffffed99U, 0xfffff8c10000046fU, 0xfffff8fb000007c7U, 0x11040000112cU,
  0xfa2406f31c5ac19dU, 0x4039a63aa557a3cfU, 0x19c80eb20d3cef94U, 0xcb3bece298d1ced9U,
  0xa49e389529af23f8U, 0xbad0b336353c6d88U, 0xb23026561025e9c6U, 0xde1bf2e5bce3a72bU,
  0xea4ff18f15f74bc5U, 0xd355e2d807b5121aU, 0xebf3e5a6d0bc3829U, 0xce351327449c9a03U,
  0x3d59e6bd0508bc45U, 0xcb10e7a19806a0f6U, 0x25811b9c38c5539bU, 0x32eda68f3a13e1abU,
  0x9ae0f989b6193a9dU, 0x9b3ed9010da121e9U, 0x11fe24dd2e0ae1c6U, 0x49b5f8b64c9ee0a5U,
  0xb8c5552e4fdd3c43U, 0x45a79cc6d7c85cebU, 0x96b7cebd101b143aU, 0xbfd40cf9611c3013U,
  0xfc22e9b0430ed523U, 0x64f06be6e934f428U, 0xf605d9d236b00322U, 0x1e1c08e831155ce7U,
  0x15cd0ed6133dd40bU, 0x1a0b2c2ca0de779fU, 0x1f7d203cee8213dU, 0x1fee1b0200dafab3U,
  0xe7183e2813dc01e1U, 0xceccd1ed4263046U, 0x2219dd1af80327d8U, 0x2412beb7cfa41fc0U,
  0x2ee0380a50c7d5bdU, 0xe31d02ea471bU, 0xfb0af2d3df3031eeU, 0xacd91bb945102de6U,
  0x98fc9d209bad62eU, 0x90f6f421feb8c93dU, 0xb2252b91e60b2826U, 0xd79eeddb1f1ca5a1U,
  0xc3138119bdeee869U, 0xf20efec1d51a9702U, 0xff17dd4ba6410ca7U, 0x9ef514ed4ea2e1b9U,
  0x4f1f0e04d61cbfc8U, 0xdc292e33393019c9U, 0x381373455ff23e2U, 0x6d33d0eefee53c9U,
  0x15bcf610700406ecU, 0x97e935f0f8b8b3f6U, 0x212d17f303e61cfdU, 0x24bdede75cf1c64cU,
  0x152a313c41aa34feU, 0xcf55f54060ecb9ddU, 0x6d642ec26d6ee4bU, 0x1b2de9bd1bc3e6d3U,
  0xf023e643374b5554U, 0xe9002affa616ced1U, 0x61393ed7cc09562eU, 0x248f43baf138d031U,
  0xda14c62e36de00d0U, 0xd2e5f9fb9253d617U, 0x4d4c18c00864ee50U, 0xbbe313855c70de7U,
  0xfec405023d55353aU, 0xfb0f3ec2aeb5dcf3U, 0x124519cd22f2471dU, 0xc201104a34e949b9U,
  0xd41d80cf634d801U, 0x5e1150f8c77f2aeaU, 0x1f0111d43840a3fU, 0xc2ad5021a371d20U,
  0xb010a2ede09279bU, 0x6bff31e1421ffa0U, 0x19efd4f82623df1eU, 0x9c92b37031b10faU,
  0x200f4bbac7df5044U, 0x120e15f827150b1aU, 0x24bf41ebfcdef700U, 0xcd5dd4f8dd1c29d7U,
  0x1cc949e259e64af8U, 0xd2c29fdf1f10acbU, 0x512d490efa091bc7U, 0x1dfbbfc31517f139U,
  0xf41beace60e2c1eeU, 0xd4e2dfee05b5c452U, 0xf74d120324cc160aU, 0xe5b5111931d83119U,
  0xb1cb3f9d811d842U, 0xe619ef9f0c34aff6U, 0x1902cae9ddfdd8c1U, 0xcfdcbb34e4dd29d5U,
  0x21cafaaa07fbe53cU, 0x7ba27fdc91cd7c9U, 0x2e43663319f5cef1U, 0x305bc26265a4c01U,
  0x49e2e83c321b6545U, 0xf2c1ed049e170481U, 0x5664e22910cafa34U, 0x10ff17ec5b1400d0U,
  0xeed725b50616601dU, 0x8f71dec224bf25aU, 0x140639ea2cfc4025U, 0xce0b02eff330ecf9U,
  0x263d1917643e4e11U, 0x2dbd023c16d692aeU, 0x4c0df21dfbd643f2U, 0xfaed110861ffe6d5U,
  0xd2e1289a380d390bU, 0xc7f7a808a5f4353dU, 0xfffc46d508201038U, 0x24b8230f142165edU,
  0xe73ad71fcd013f23U, 0x2ed342f40ad9f6c8U, 0xf01f2535f4faa515U, 0xcbf9ee43bfc935e5U,
  0xf4d736b77fea014fU, 0x4c165cdcdc070e75U, 0x1c2d3b451ebdd107U, 0x1962cb3053bc3013U,
  0xd9382be9e81c0147U, 0xf4f217e7f1296012U, 0x2cfbfa35f408e9e6U, 0x46015a0ff2d804f0U,
  0xe0e20c231eee470eU, 0x6caa0cbebc507f0U, 0xd6de4bce03470710U, 0xbc3205de0cc8ebd0U,
  0x33080bf5e9e33b1bU, 0x39a9e0d0febaec0fU, 0x64b012904dccedfU, 0xeeddfb00dee7d21cU,
  0x5bd0bb428e8f046U, 0x30a104e5a1b81c1aU, 0xcb4c1202d363f0c1U, 0x92c9a0efd300afb0U,
  0xc934d610151de34bU, 0xeb20d1b9a6e3fdedU, 0x2e36d9dcebcdecdaU, 0xe720c2b8f9e0edd4U,
  0x2e3bca01feebc8eaU, 0xece47f24f839c3d4U, 0xf95430ef2027dbeaU, 0xf2d40910de3fb720U,
  0xf902c6f30afe06a6U, 0xf40bce12f4d1f9e8U, 0xf1cbfd0d1fedefd6U, 0x11113081f2814d9U,
  0x18080bedf1dc0412U, 0xa38dfe220f3d7efU, 0xdf17f5e8cb5417d1U, 0xb191d09fbdeea2cU,
  0xf5ebece5d10a3feeU, 0xc612ff3515d8009aU, 0x21fc35f3fb172815U, 0x2519eed53c1e2d37U,
  0x1f02f106290f0445U, 0x17e49e1c1cd5d512U, 0xd03c09241ee0c10bU, 0xf6ef34fcea1515f1U,
  0x2529d046ba3c0b71U, 0x353ad5bf28d5cb2aU, 0x232f1ad1f6112726U, 0xdfd20902d3eefdf9U,
  0xf9e2c2f7f4d93735U, 0x33cb17c8c7f8c00dU, 0xb7fa0fcb00111db9U, 0x1f9e21ac4eaeffbU,
  0x20fec7f905f30f81U, 0xc3abb7dacff831faU, 0x1ff1d8f3fbfdd9faU, 0xc6c2e0ba26fed3feU,
  0x71fefeae5e5f837U, 0x3afed82cfdf02326U, 0x16eb043e28e20519U, 0xd9de2c1ff0fef012U,
  0xf81dfd2519dcf3e6U, 0xd91912f509114204U, 0xf308fe23f5f9cff2U, 0x4123141810ee1be2U,
  0x1eea14c4012e1a29U, 0xd3f5d01e0522e209U, 0xdde0ea2611eedd31U, 0xfd24e2d81dc90f15U,
  0xdafe2ce323f31c5cU, 0x16e528cf18ebfd04U, 0xf61c040cec23edd6U, 0x161b1e2826fde4e4U,
  0x2bb0e965fc9fb39aU, 0xdef11420f9465224U, 0xd8c1013f54cfe624U, 0x4cdbf307541c60b6U,
  0xaa0b0a49f043d918U, 0x2b41d3e13928952fU, 0x563537e2281b5b55U, 0xaae3504dfed2c63U,
  0xec0029ed03d0c89cU, 0x171b1fefe50ef8f0U, 0x48b5bb47e33e5eedU, 0x59cb0fe067bbc92bU,
  0xb9c13f1ce1f7ddfeU, 0xdf12420dc10452eaU, 0x42c6cfc30bea59f4U, 0xdfafe82359452317U,
  0xd423154b159bc6ecU, 0xf2337f2ac8ce51d5U, 0x8efb0b13f8c62bfU, 0x22075215ff4746a1U,
  0xb507c5e06907d44fU, 0xb8dc54fada28bfc7U, 0x53a6d94908426fd4U, 0xc08fc9e3bec50c3bU,
  0xc1d6a8cad2c029cdU, 0x17ea09c41a3dd2dfU, 0xbe37b43ab4dbb129U, 0xdf39446eb275735U,
  0x5ff917bda1c7c3e3U, 0xafc114cca324eb02U, 0x2d8d10f911fb0219U, 0xf42426cb43cce4dcU,
  0x1c3b155f0d12a59fU, 0x42a4ed92cd7ef1cU, 0xab0730e8d7add425U, 0x5ef28b1f4d1b501U,
  0x1bbbdf353023b58fU, 0xed2e3cefe947961aU, 0x9a3d971cd7a2de1aU, 0xf8c1a5ddbe3f1a08U,
  0x3dbbaef4b0cba33fU, 0x17131ed32df5632fU, 0xebc4dd2f177f97fbU, 0xfc2b0a02b8d727caU,
  0xbf25b0bd0cc548cdU, 0xe7ca4f23600e2a56U, 0xbc028d0cac2cf1a5U, 0xbd04bb2143c0ec11U,
  0x294018543054ef40U, 0xc82635e336c23416U, 0x1361df241831f9ddU, 0xf4fc26bef0b6c827U,
  0xb722fe08cce01e7fU, 0x39bfb81bead61230U, 0x3732c794262ae2b3U, 0x1de036bcfc2e05f0U,
  0x1f80d2fb71a1fbbU, 0xb9f4ecec4c982103U, 0xef36eac9a51e1ac7U, 0xe418c113bac9a239U,
  0xf71b03a7271dfe1fU, 0x3906e5eebef92678U, 0xa3d5c9eafceba5e3U, 0x13cfd71fc432d1daU,
  0x24ec17c9cfe81d2fU, 0xfceafbc4f3ab3ffeU, 0x2bf10fc0a2bc1b3U, 0xcdeb25dfbc10b831U,
  0x24d22ca928abb1a2U, 0x24cdbb951ff904c0U, 0xd80cd8f81441f50bU, 0x5f52c050cf007a4U,
  0x1518f12a00ed15e7U, 0xfd3b7ffffb08fcc7U, 0x2a1beed7e217fb0bU, 0x2617e322cdcee83dU,
  0x6b9da1d17e4dfb6U, 0x26ecd63551d2a0e2U, 0xf9ff33c41e14c3f5U, 0x3031122608083401U,
  0x2912dc30f53fe438U, 0x5f3e6d4dfcfc0efU, 0x203c371cdb020ceeU, 0xf113c8eacacfedf9U,
  0x41dcc4caca23ec1aU, 0xc8c726230023bfbeU, 0xc5c721fd3df1eb02U, 0xd656cd25de3c0a25U,
  0x23412fefd2e11f00U, 0xb1d6112433f2fe13U, 0xc44ece2cc40ff0beU, 0xf280e1c08fef93fU,
  0xf2fc81bd91bcdc0U, 0xcedb1fe735dfff41U, 0x2bce01f3c2c5271bU, 0x491219c9daf31323U,
  0xb9642b0e3fe3e9c5U, 0x8ff619ed50b191c5U, 0x7fffe4641dc9ac4U, 0xf9d45554b3e0755U,
  0xd7c4e6f8fa43cb99U, 0xe75715ba3149216dU, 0xa431fb18ed0532ccU, 0x494cf1e1240350f7U,
  0xcb4fff330e1c4fe1U, 0xd221d82bd9befa89U, 0xeb62473752680ecaU, 0x1bbb545ee67feb6dU,
  0x2cdc3ac49c271e29U, 0xd6ded7df3046a2d1U, 0x91fe40ee720beb47U, 0xb61dfa3c166f6647U,
  0xac699540d2dcfd41U, 0xc6370432e028f20eU, 0x11791bc745caf4e6U, 0x54ad1b69e35af51U,
  0x114a04f0b2029aecU, 0x4ea4e2d04fa7c91eU, 0xf7e6fa2f4b0fdf05U, 0xd613d55cc649fc00U,
  0xe0ed0b58f323174eU, 0xe79c1fba08838146U, 0xa2d38e8f9640c8bU, 0xe9021faabac1d13fU,
  0x1131d6a2ebd8f94aU, 0xdea4b5d603f5d31bU, 0xf00eb63023e08ce2U, 0x103dabec3e0fff91U,
  0x203edfe427522f27U, 0x139850ccb9fff03cU, 0xe81dd8eab9ee8383U, 0xe5d5e0a4e6089830U,
  0xfbd00ecfd1f7fa01U, 0xf081e0e8f4cc4031U, 0xbafb2402c31bbbbcU, 0xef40ae48cd10f99bU,
  0xb835d010fc154e0cU, 0x22ef5e82f2e139b7U, 0xdcf51bb2a3e63a98U, 0x15fafe51f8f3eff0U,
  0x21fcdff1ecc5f340U, 0xf20bcbc207c11d39U, 0x1e7d4a735f0a34cU, 0x226b9cf9d4e30ec8U,
  0x4efe30f0ba5d7efU, 0x99223107e2280f31U, 0x20ef1fe7092ef02fU, 0xda0f1b2e383e2efdU,
  0xd50e080729e423f5U, 0xd716e72abd015a3fU, 0x25e3d01efb0a09e4U, 0xdedd38101de60402U,
  0xe1211dcfb0c2d6e8U, 0x2e14ace32cd93530U, 0xe2bfd92a2cf8e1d3U, 0x2839e924dcfafd01U,
  0xf81e45143205ede6U, 0xc9503636e31254dbU, 0x3ff8261fd01ff21bU, 0xdcc406e524d1d23cU,
  0xd1152d2aeec4e8efU, 0xff41452609150bf4U, 0xcbcbe1c52e810accU, 0xe70f1fd3051b3f23U,
  0x2b361f3039f421efU, 0x42c342b08172c2aU, 0x3c29391216e31a29U, 0xe3c82532090d204aU,
  0x116fe42c8419cfbU, 0x7c1f7402d999ba5U, 0xfad4aa0202da48abU, 0x232c91cc35cc3dfeU,
  0x952ee2db5214e6b3U, 0xaad5d3a811c0ede1U, 0xa38fca9f392fcd42U, 0x25931eecb7b0dbafU,
  0xbd9d07f2c0a9df08U, 0x480f3da40ae7968fU, 0x4d3b983ba13658e8U, 0x451e0f94248cb7a6U,
  0xe30818a924a1710U, 0xa349cfff8c7b0b9U, 0xe6ecb6dafac1d00cU, 0x9fb73fbf09c2c1cfU,
  0xed0ce44f370d0e9aU, 0x37d939d8d3bcdeeeU, 0x1a3dccbe1c08a994U, 0x13a8b3afc01d059fU,
  0x473be6e91bd59fa9U, 0x8e54cf48e645ed60U, 0xb2e0f7d6ced7fedcU, 0x34c0aa8d404245daU,
  0xfa03d0090ae93e26U, 0x7f1ec3fdc6bf163fU, 0xfbf2fd9abe26d9c2U, 0xf41cd23dce26d343U,
  0xe725f9f405204fd3U, 0xc506f0eee8cb49afU, 0x3e0b36ddc3e3f8c4U, 0xd739ccdd28e1c19cU,
  0xcecff63010f4d314U, 0xd1c3e7b92529d3e2U, 0x9a37f7adbc0f091cU, 0x2fea42f6c8b1c030U,
  0x2f20e0f0e34bcfU, 0xac12e3a951ce41b8U, 0x3b414733070cd0f8U, 0x1524dffb0c08d9ccU,
  0x250610ce1c1b652dU, 0xe53ffe1121c03526U, 0xece8742b0bee1be8U, 0xf508ee6803203416U,
  0x41af75cd52d36d1U, 0x12583b030e08e8f6U, 0xe6ee116738eaf225U, 0x411420dc1f28f25fU,
  0x17342bb000f02237U, 0x49ce59cc0700f5f3U, 0x7f8d3e9d78ebe2cU, 0xc922e8e7e6fd1c1eU,
  0xf50dd82e141ef400U, 0x290b15400cbf4006U, 0xe8cbc3f6d01c31cbU, 0x41e3e52f0ee90eb0U,
  0xdd547d9ced0481aU, 0x3edca41f0173c47U, 0x3dcb1a02de2b30f2U, 0x1a100a243002fbdfU,
  0x10112ff21dc90fdcU, 0xf0cd082d0020e69cU, 0x190434cc11091bU, 0x1504cfc73b172aU,
  0xfdd7e2fc5d1ce3f2U, 0xe0bfea14e5123f3eU, 0x13160cd9e979fb29U, 0xc5aa3e2047ddee11U,
  0x1105f618cf33367fU, 0x2ad8e6c4a632df20U, 0xf448f3f2e9e1c9daU, 0xbac31ce539f7152aU,
  0xd42d1137d93eecc6U, 0xf60bf617c8defcc4U, 0x3f192ff5f2dc0fdaU, 0x6e61ee7d828d5d8U,
  0x41b113f91ff7c7c4U, 0xfdbd302dee0adf09U, 0xdef42d28d7f3a2e0U, 0x1b33f933150de5fbU,
  0x2ddc253d1c57f7daU, 0xe1d3e6e0dae6ec22U, 0xc2de92302813004U, 0x191ad4edff2910feU,
  0x4ae52d29cbf7f3e9U, 0x300ef422290adcfeU, 0xa81eeab80fcefdc7U, 0x41faf60b1c4820bdU,
  0x92e28e0df49062cU, 0x13c62fd001f6d2ccU, 0xd43c3e3c2b82e906U, 0x16bded43ec37ea5cU,
  0x1e11151ff2ce25c4U, 0x1a2c162de3210e12U, 0xb60d27bd321e09e8U, 0x1b091fdf02d217cbU,
  0x5e4cdef9d42016ffU, 0x8fb55155a58ee01U, 0xfff000d00bf12304U, 0x1dd7e70cd42d0715U,
  0xfdbdba1c1ade17eeU, 0xcfdcc15a201b13a8U, 0x39c91e303ef4e9e6U, 0xc0cad6ec551706d5U,
  0x85332d333f51e2fU, 0xe52c3a4e1d2730f8U, 0x3edd1eeb2d81f8ebU, 0x31eb362e252f34b5U,
  0x2ce91a3707301df8U, 0x15ccf4050eff02ecU, 0x4835f8061eeb27ecU, 0xd1ee26dfc3f0f5f0U,
  0xf4d8035906f6faU, 0x99f1e51fb0d3de2cU, 0x17000e21f43aac12U, 0x27d5e8f437a5e6aeU,
  0xfa0304e382002b3bU, 0x2d020f09edf503d2U, 0x33fa07fcc62c04bfU, 0xf719df1deef2fb00U,
  0x1e23f5302cdbf0eeU, 0xfc0d7129efd8dafbU, 0x8f3233c91a2faeb0U, 0xb7bffd98c119f8bcU,
  0xedba8fcf0eff141U, 0xeab801e1bfb33ff8U, 0x475946d7dae5b6d2U, 0xc38103f5d1a904edU,
  0x2f0127daf1efff15U, 0x20ff080ee7eed8e9U, 0xc44d2594e50a31a0U, 0xc7ffd7adc38ec5e1U,
  0xa52e04b13524271aU, 0xbbc22292030efcaU, 0xf3eee9e0d8d4e8bcU, 0xc1e31ec50dd70527U,
  0xe0090f3816000644U, 0x4c2cff4b05deea24U, 0x14410700e263382aU, 0x3091e42d1dc5ff05U,
  0x19f9e519f9021a3aU, 0x3508f531f9f31ac9U, 0x54efff0dfcfcf7e1U, 0xaace101f3f1be2f0U,
  0xabc61503c3b6e5a4U, 0xb2e9bcebe91738efU, 0xcb7d9d1eaa9280cU, 0x2b1428452bd8d7e3U,
  0xff11c92d031fc4e2U, 0x703e63511f9c181U, 0xcc9ad43f23244252U, 0xbaadd902f920dd0fU,
  0xcdd63026b120ea12U, 0x5125061d1cf5ed18U, 0x19c8222c35f2cf38U, 0x19f21cfcf5d7cde0U,
  0xfe17ca2236e33730U, 0xd25e5e5cbe61370U, 0xe0f4f12e3c0f4df9U, 0xd40937d0cdffdb22U,
  0xc4e7f0d8cf2813f7U, 0x38c707e8f23449f5U, 0xf50a100c2c0809d4U, 0x23441ce72c241219U,
  0x18d70b2cf933f913U, 0xd301322dc9e037b7U, 0x3d1ff2e502f006fcU, 0x2c0e11fc63dfe003U,
  0x41307c20df4c600U, 0xa439e9c7e01a263cU, 0x15fac846fdbdcce9U, 0xd581dfc3dee5b1cU,
  0x370638d31c40f664U, 0xf60934d3eaf3053aU, 0x151bdee2fed1cb3dU, 0x24fcf311e04541bbU,
  0xa7ae0bf22f3505f3U, 0xdab3ddcde7f92c08U, 0xf70111360723c3d2U, 0xdaecd8d91feb30c6U,
  0xf013efc20435ef7fU, 0x36e5b9e7e9cacbc7U, 0xc330f906d2e623ccU, 0x1507d8e41d11d5d8U,
  0x12d032261b23ebd4U, 0x4815b224ee00f708U, 0xd8200cb3d32e16c1U, 0xb004e4edc8e51fe6U,
  0xee3e080ff13800fcU, 0xf1dbceb0e2d40dbbU, 0x19e8b0d1f0fdee02U, 0xb9cff9ff11da1902U,
  0xab23efd481c9f4cbU, 0xfee0eb22a329d225U, 0xe400c1990c51e7d1U, 0xbc262d24b4f117baU,
  0xe1faf1b10cf99530U, 0xf81706b8d8c11848U, 0x21edfe33d756d6a0U, 0x46b13209b021fe9eU,
  0xaa2f18fa29fea9d9U, 0x5d082be9ac05d7bbU, 0xf8a2fc1012f61c2eU, 0xa1d4b3e7f2c69decU,
  0xe930dfe3fce496bdU, 0x3293d8ea9ec9411eU, 0xcfbfdda836da4823U, 0xdb605c14724ccafU,
  0xbed018c6c80afb3dU, 0xe6a91c1ba7024457U, 0xa69d1a999cf6eb11U, 0x23ae2daa13c53babU,
  0x2ba59bfaf2b09e28U, 0xcff6ccb5c91e60f0U, 0xf530f0d7dee11be4U, 0x7cdfc8d1c28a3e6U,
  0x190ce534e6171ae3U, 0x41f650fc04f5db1eU, 0xe21903d2d3ee19dbU, 0xf8ffe3f206f0cc26U,
  0x10faf0d818f628U, 0x6020c05fd0ffb14U, 0x10cf7e8d715fb0aU, 0xe5e5ea17fb0eeb17U,
  0xf926dff9c624eae5U, 0x7f0e3b09ffdb16abU, 0x1c0ce201020315d8U, 0x9fd26160e22ed27U,
  0xe505e5ffcc1fe9deU, 0xdea020ef91815f4U, 0xf5fc12d1051bf0e8U, 0xce912f3fa24f3e2U,
  0xe926000f0716e818U, 0xf07de1ef8cffeecU, 0x16110f072303ea07U, 0x1cfd03041525e0f4U,
  0xe701060fc4e9ec18U, 0xf3f404e733174414U, 0xea18e8c60af101f9U, 0x11e22517212ffaU,
  0xc6e91664f3dbb481U, 0xee2a20202aa711eeU, 0xcb3b52526d806e1U, 0x401900fe3b3e0b1aU,
  0xd5ccbdf6d604de22U, 0xd70fea0308e6eb2fU, 0xfcd303062b41ff2bU, 0x3c35cc1ef205f83aU,
  0x1826e41dab268fe5U, 0x190d5f1a47c5d9acU, 0x25cae8f746cc4031U, 0xfaf252d4f8ed0c0bU,
  0x25f5171ee005abd1U, 0x56e3d01d1dc1c0aU, 0xa7b833861a061a06U, 0x25f1173810fff8f3U,
  0xb4d21d28bc2cf4a6U, 0x11a01db28f42c27U, 0x48dcdf4c1bd9f307U, 0x5216231924051410U,
  0xcff39fcc50e040cU, 0xe43e211830300b64U, 0xf7d0ccb02d044b21U, 0xf22f6ca27151ef9U,
  0x22d9ae37f1adf8aeU, 0x362758ce392f0e5aU, 0xc6f3172b02c82f16U, 0xb25eae333dfcd19U,
  0x301db71b410ff249U, 0x1b12d3d11af57f06U, 0xc3fb07e2e8cffc45U, 0xb514190afee2d5d2U,
  0xb31446eaeef85221U, 0xdf50241214a21b3dU, 0x16d10f0efecb27d7U, 0xbd919283be6faeeU,
  0xfded2132350ed49aU, 0xc4ec2e0bb53a3b54U, 0xb1cd332bc82b65d1U, 0xf03605bcaeb00e1cU,
  0x1836fa2633b2c396U, 0x992ac42de5bceaffU, 0x51cedeca64d8270eU, 0x45022c4929f7f104U,
  0x2ed1f90336c7c910U, 0x2d22f0ccc3f9558U, 0xda3204f616c501ccU, 0xe72e3b2403ee00d4U,
  0xc73a33cb59f2f320U, 0xbddefc16ec2c1323U, 0x40d33d4cd7c9f348U, 0xe1552e1e1528353dU,
  0x2ac3033be8e8ea0bU, 0x3639412a32420ec7U, 0x133e15f51ee6da11U, 0x17e616081022e9f1U,
  0xccc312b049541553U, 0x21b29afad235fd42U, 0xc20732db05d80310U, 0xe932c3c502f511feU,
  0xd64df50fd3fee370U, 0x8e6df1202f49e0aU, 0xcee1e9e0e82bfceaU, 0xdd3d3630bc05380dU,
  0xe515e7a313c9fce9U, 0xbbbc8110df1cfeebU, 0xccea2fd6a10feae9U, 0xc6bddbbad105c7b9U,
  0xfe2b1300cbded806U, 0xc3add7a906f2c8f9U, 0x191dbcc8d535ebbfU, 0xce21c0b0ec11bcdcU,
  0xc1ded70333144e05U, 0xd3522dad82a2c40U, 0x8b83a113790f5edU, 0xd72cb3014cb9f4aeU,
  0x4e811d187a353c0dU, 0x37280cf9e2f82486U, 0x49f64155f33bfc26U, 0x3ff1cb1e340dd33aU,
  0x20c8ec11f626e537U, 0xfff68fd0a39d5fbU, 0x3f273fbc4cc22b0dU, 0xbfda2524eaf029f1U,
  0x1be2aad10b262bdeU, 0xccc7c2e7b14cfdd9U, 0xf83d0b44ffef0e0eU, 0x2de9324b1eccedc8U,
  0xf7f238e4f9ef3d17U, 0xc42bcfd7f967de29U, 0xf286f2e5c4d0c8d4U, 0x16da08cbede63c99U,
  0x23c13fc94fef304dU, 0x3033cb3b0335f1afU, 0x3ed13d16fe13fe30U, 0x12cbb1efbe2ca2fU,
  0xf352ece415fe21feU, 0xa450e62826f0dad9U, 0xd1d6d1051b182615U, 0xfd0f231b310f2530U,
  0xf478c4021735186aU, 0xfb174808dbd19be1U, 0xfe182d99f8e811fdU, 0xc8eec210feef4215U,
  0x1bfee73f09eab7dfU, 0x224f6c09482926d0U, 0x2efefd403842bd10U, 0x24134a012ff80fd3U,
  0x8efee1d18f6fa73U, 0xf33341202d31d43bU, 0xfbbd269d19cb3c33U, 0x214e24251822443cU,
  0xe4e11028fadfa736U, 0x4fe7fde04f7c9beU, 0x57eb0ee45febeeU, 0xbf25eb9cfec4cd21U,
  0xaa07dcaab2d9cfdfU, 0xc9e5e9ee44e12cffU, 0xbb07ea9abffd1bdaU, 0xca23b6e3f4c3d027U,
  0x2befe43e00eef61cU, 0x29d364e60516baeaU, 0xdc1c2ee3081fddc0U, 0xd1b4e5e9fcf2a83eU,
  0xd908e50d19cac9d1U, 0xcdbef30d0eda0fdeU, 0xead5fffdfa06e2fbU, 0xfaafe309e1c013fbU,
  0xee27ff1cc4d02c0cU, 0x1c28d1f52eceed19U, 0x11acf2def24603ffU, 0xadb14041fd8ecefU,
  0xff2f23091d0de3dbU, 0xc1fe0c161df1000cU, 0xe81df2f8f901331cU, 0xc0fe0fce3d4d143U,
  0x90230f7fdfe35d8U, 0x8133e03940e30effU, 0x80cfbfa251b141fU, 0x2500343927ee092eU,
  0xeb1844010c1868U, 0xe41fb241b06ea5dU, 0xfc2df92c0e0936faU, 0xf4fd2c23122df004U,
  0x321e153ee9e050e7U, 0xad369f2e313ab42eU, 0x2c0205cbd7f6b0e7U, 0xfbcbe11a19520917U,
  0xf842ae42efdb36c3U, 0x1f0edf33cc4100dU, 0xc011c6112415d0cfU, 0xed25ebbeedc80de0U,
  0x24000e5ef55324cU, 0xb3f914d5cd1023bdU, 0x5346d21922ff2e16U, 0xf7c02707fbf9d1d9U,
  0xf38b04da1f81c1fU, 0x55a1eed0e0f7b63dU, 0x1808b7f13623f7deU, 0xe07f2443f9d150adU,
  0xeb4209625261ebe0U, 0xa1dae24414c93dd9U, 0x111f36d7e9d2eae4U, 0x1dbd1edef53344e7U,
  0x43ed09031df40b3fU, 0xc8c71ab05aefe4c5U, 0xbf40e02a1ae2d62aU, 0xdb29fed8c51e02cbU,
  0x5690dab845c1b3f3U, 0x62ec343656fec7c4U, 0x2c882aa5634ba6e2U, 0x9ecb1829be27dcbaU,
  0x2f38de1296bfe1ddU, 0xe020c0a204b44b37U, 0x81b52a19370128f3U, 0xd32bbbc02068c20cU,
  0x38aaede4431eb355U, 0x649e0dc9c648babdU, 0x63f0c205b0b70691U, 0x216347c0479df9f4U,
  0xcbd71cfb09f2b74bU, 0x9b1f8ad3e481a04U, 0x9b3f0dbd0a49c407U, 0x32409cea3e51b766U,
  0x3a0bd30e9ac30914U, 0x6b8cc48725d5d911U, 0x3467dbc23c9bbaaaU, 0x8ece4b9e979f1f01U,
  0x5bd5623dd219e611U, 0xc5123b4ebd44cf4aU, 0xcd9f010ed728ccdcU, 0xb95babb16451cfa5U,
  0x57f0e10df8e21e3dU, 0x7f3a560a41f9e241U, 0xb4d00afcde0a231eU, 0xcc14e8cdc8131fcbU,
  0xe2119f236e728fdU, 0x60d1d00d1cc6c13U, 0x4b21425cee2548e9U, 0x19d309c9dfeb0019U,
  0xd3b08e40bc029fbU, 0x334a7b3beb1f0e55U, 0xfb184dd61b20f11aU, 0x28df28fa19cce3c3U,
  0x2817081c3f2006e6U, 0x242a2908c3ce1cb0U, 0x504a380b110903cfU, 0xce1102ffb1cf633U,
  0x23d711e948e9d1f8U, 0xde01da1eddf1d33dU, 0x9d81fd716000b3cU, 0xd5e025d70be44ad8U,
  0xe4143d2be2f5050aU, 0x24000adc02fbfe10U, 0xeb362d3de708fdd5U, 0xf1d41326da0729d4U,
  0xc4dde1e4120b22c2U, 0x2dfc0e3328dc231fU, 0x4923ebd71825482dU, 0xe9c7dcfd461d103eU,
  0x1d070520262a0adfU, 0x2dfd2012192b944fU, 0xe212d73ad43709fcU, 0x41e10f9c014e401U,
  0xb729e1dbc829dba7U, 0x56091f12fad13e27U, 0x1c4b4280c023b20U, 0xf0e7dc0c22030f34U,
  0x33d40f3111f7fed7U, 0x161825d5101a0f17U, 0x19fcfc3aebf6290bU, 0xdbe11bf1efcc2b0eU,
  0xde17da1fda0d231fU, 0x1fcb34ff0c3d322aU, 0x44dcd3ea131043efU, 0xf3d513fa213534edU,
  0x2ddc370313d40481U, 0x10ad948f6fd1f1bU, 0xf9e422f0e9c83319U, 0x341f3206d9001c0bU,
  0x21e6f004ebfed5f7U, 0xec0cebd641ebbd0bU, 0xe2efe2ecdf36e8f3U, 0xc2c8d6dedd91b3e9U,
  0xc323101205d3b0d5U, 0x5f6abedff1b067aU, 0xdf032bfb933300fU, 0xc7cc29e218d2cb1aU,
  0xf1c90bf5011df9deU, 0xdade4311ce1b20d2U, 0xc40b10fe2324f7f5U, 0xe4d1291824f7d9f1U,
  0xea04231b0d1123feU, 0xb12cf0ad2e51406U, 0xfa41d30d1dc9d3faU, 0x28bfff33eeca0033U,
  0x39411f05c72cf926U, 0x53fe7f2c480435e4U, 0x150015d7e8c93b02U, 0x1835dc3bf5fbe94bU,
  0x2e30eeea1e340afdU, 0x2b2a4a22232d54dbU, 0x341becfe18e93e38U, 0xa013000f118ed15U,
  0xfdb4f09a4528cfc7U, 0xf0a5d0c6b60cfb03U, 0xde2d37ec2dd34e43U, 0xb1ecef3739d8d208U,
  0xbeacc3e8702e30efU, 0xd7b1b5bde812bac3U, 0x1fe3ce39ff10b241U, 0xd0da00d5010ebbe0U,
  0x41cddb07fde1df1dU, 0x7df665f73af523d4U, 0x31b5a73a37815322U, 0x152ecff82e18502eU,
  0x26c3cef63407c1a5U, 0xe837ec490dde46bbU, 0x2abf2928fef2ea47U, 0x33032ac6e8ea0cc0U,
  0x31365014b2da46daU, 0xcd804e9060de050U, 0x24a6d7d30e0c2018U, 0x273ac4080e2115faU,
  0x41b8d62744321e13U, 0x5b338e20a1503faU, 0x4e33c542efe813c5U, 0xcc1de9191f14331fU,
  0xd035bcdbfc051f0cU, 0xf2e4e5f0d7dfde34U, 0xa41f8f334dddc02U, 0xce7390803cc341aU,
  0xca2b1a1ad2dcc916U, 0x151b030908b8b9bbU, 0xbcd4ecdcf326e8e5U, 0x3824dee629cc25f6U,
  0xefc0d2501b300fcbU, 0x3d2ef4f6b7a817efU, 0xda0918ecf27f20afU, 0x2401c3c8d3c71340U,
  0xdc1e1ef5f2e4b00fU, 0xc61ed8bece1a1348U, 0xc822a3a4b63bfdd2U, 0x2312de19fdf31dfeU,
  0xba110de924181aebU, 0xb4dd1aa7b20ee600U, 0xbb27d5bc0ebeb8c8U, 0xb3fb10b212c7d4f9U,
  0xb62ac3d0dcc00903U, 0xd70deff8d9120f30U, 0x11fcebe5dfd1b2eeU, 0xc3f90705e0edb0e1U,
  0xa8cae9e2d1630af0U, 0x3316cd81f9f76f00U, 0xbbf226d4522b220dU, 0xf2f798bda5fba8e9U,
  0x2d9c0af0ceb8dce2U, 0xaae64244f20746f0U, 0xd581f988b5e68bbcU, 0xe7c353273d3dafe3U,
  0x9fdee7a237c0e29dU, 0x6038019a609fbf3cU, 0xedc042da4d130ba1U, 0x9a4f4283c0e79d4aU,
  0xb0b40692dd31cea3U, 0x273df8c8a58fe26fU, 0x22f79a58eecbb1bdU, 0xf10106b8cad90accU,
  0xac1b028bdcbce1fbU, 0x3ef0a9daae57bd47U, 0xb490d1b40422b21eU, 0xc00ea8fb6c1517c0U,
  0x511f2e31b4bffd8bU, 0xce54cfee43e41c88U, 0xe95d5c17ae56eee7U, 0xa11d3cfad7ef04b2U,
  0xb9615b434751fa0aU, 0xdadb40361461ed0cU, 0x78feb51528c10555U, 0x5914241b1c6f5906U,
  0x1f414a17e0fb5e86U, 0x563c28004f39facbU, 0x8baf9b6ece8ffcdU, 0x31774cdccf5f231eU,
  0x9fb1c0f243cf6c6U, 0xa2d69c41c6d0cbdaU, 0xd931e7440169b904U, 0x3f3d45ea38ce55acU,
  0xf9f9d4ced2002626U, 0x3cbdfeb24ec9a1bdU, 0xac9ac6d054cb2800U, 0xd245349ec1142dcU,
  0xc1d636cb29171244U, 0xdde217201af31628U, 0xef81261a1017cdceU, 0x33cab4ddc71a3d41U,
  0xf4f748d50ead1878U, 0xc33206d12610a805U, 0xb01328d9bce6b6f1U, 0x50dac5fcf6c5e3c6U,
  0x41003b452b3de125U, 0xbffb7ff047fc18cfU, 0x726de263226b521U, 0x1de1fef7de3bf12eU,
  0x6fa0109cc1afd00U, 0x322505ef15111d17U, 0x1feb0ff5ef1505faU, 0xf302f14f43641ebU,
  0xf026f539fdfde8f7U, 0xbf4fef0eeb01cdfU, 0xff18d0db0afc29e2U, 0xf6010d050cea0a1dU,
  0xcd1b1ec31b1ce83cU, 0x22c320d3fa2ccef4U, 0x111a15d2ebdee714U, 0xf1fce31015e4f628U,
  0x29d7de2416fae2f7U, 0x30e20d3dccc0c22U, 0x23bc1e5fffd19bdU, 0xf7abf7d005dd15fdU,
  0xe014f209eacaea23U, 0xafdb6e31019154fU, 0xf9d5c6e4ea29d7f1U, 0xef2beaf5f0dee305U,
  0xf7f703eb2de43a18U, 0xda315d02f0342bffU, 0xf6bc47f3cc163e2eU, 0x1926082116ef02ebU,
  0x27c411281fe53cbeU, 0xcef9d833f826070eU, 0x1ffdd943f9da0b03U, 0x20ea32cce7dafd03U,
  0x381230f424d0decaU, 0xe2c6f41ed6eb2918U, 0xde52afc343eea30U, 0xcc1edf352ac12cc0U,
  0x140607f02f0333f7U, 0x25f0d2d0b32ebf81U, 0x1092f43c9fbe732U, 0xdde50627f3dcd223U,
  0x3d804d33cf7d9d2U, 0x5ae20927073008deU, 0x37defac625f5f732U, 0xd9e7f8c63fc332adU,
  0x6ffe30433daf83dU, 0x3ec41c18d2fe50fdU, 0x1dd82d09b3d4f8edU, 0xff03190bd5cec32cU,
  0xdfe60917dafd0cf5U, 0xf832d5052712d62cU, 0xd6e431ed1b2c3a25U, 0x1ceb13e3f6e4dd0dU,
  0xeddbc4260916ec18U, 0xf5d8ea2e26268130U, 0x16ee0349e3fde017U, 0x1eca3c2af2d8ee33U,
  0x381b0d06050a091dU, 0x5c08f0f60f2a29f0U, 0xd92e02da2b09ed16U, 0x22f11a1e2017fee0U,
  0xedfea28e5271e0bU, 0xffe420f6ebf63fdeU, 0xfcfa0331d8010b2bU, 0x10d309260211ffe8U,
  0x22e42817f1f0f015U, 0xe4295fe11f24c61cU, 0xfac918cee7b5eb17U, 0xa2728ccec13efc9U,
  0x190f1ff03808eb0eU, 0x1cd9142d19d7548dU, 0x3ffffa1f0f1316dcU, 0x25c614dbe70811fdU,
  0x1b15210bcffbd7c5U, 0xba037f2824acba22U, 0xfedac91b26da0edbU, 0x38ef32eee9f7e1d8U,
  0xf301f205e3c32217U, 0xb05cf2b46319867U, 0xc420ecc0f1de2614U, 0xdd3901e114fc010dU,
  0x18f11f64ae2132efU, 0xb30e72a23e912feU, 0x2c35d11e2ae50102U, 0xf1c25321e291515U,
  0x16f51a2716e6db33U, 0xf60b4706ff3fb8fcU, 0xb900dbbf23f4d417U, 0xe9363204f1061a1eU,
  0xfa4bdd391f2cbe10U, 0xddd64ef54a281dfeU, 0x15e514590a9cd7f1U, 0x3be6150e46fb18f3U,
  0xcfd92706d33d00a8U, 0xeb08f33d1f37f6c3U, 0xe5c7fe28f1011e00U, 0x30e839223ce24c05U,
  0x22f01e02e7dae818U, 0x44f52eddd1f5d8e3U, 0xd9f7f2c208e1fac1U, 0xd20c1812d604cb05U,
  0x3e61bcce8d2290fU, 0xd5c1cadee5082cc1U, 0x92ad6e0ee32dec6U, 0xed0bdccbf7cdcc14U,
  0xd08f8eaeef81b07U, 0x162297013803eb1dU, 0xfb1430d11a601a33U, 0x11f2e619f404fc0eU,
  0x715203915db18e8U, 0x1e1a252efe180f3aU, 0xf121001719e51af6U, 0x1bf42fe4e9f3e11fU,
  0x10d724d22116c9e2U, 0xea0d81e405251937U, 0x11f501f8e6b31d2eU, 0x5ec04dd03da3f28U,
  0xfa3b100d3428ec3bU, 0x2214ed0608179fbcU, 0x261629d8d90ed82aU, 0x19240f18fed4ceffU,
  0x46eb004cb1dee2e8U, 0x9a187bfb135af9d0U, 0x4fa12f8d8f23406U, 0xf3cdd9dfd0d3c603U,
  0xc8f9d6fb260b1bdbU, 0x13c7e402dfe1c0faU, 0xd8c533e8e8fe1cd2U, 0xae9bd82b0815cbe7U,
  0xdf0c41b7acf91404U, 0xa342cf253000e7ceU, 0xfa4f4dd10541a04U, 0x12b112334332213U,
  0x291ff1d15eb2a47U, 0xaf9dc4717f8811dU, 0x441228ee1bf92c09U, 0x7f317030d0c0854U,
  0x2928e81929d19309U, 0x2a360325d122edfdU, 0xd25de00222f02ef9U, 0x322801d100b50109U,
  0xf929cee7c32b1436U, 0x3124e20508f88ccfU, 0x1beb23a411fad73bU, 0xe4e41212e132e2dcU,
  0x3476abc50e4ca20U, 0xa6d8f4fe17365de2U, 0x4ed528f01e95d970U, 0x1530c405055733c2U,
  0xd504c93222d21da1U, 0x15f02afe23329e2bU, 0xb1b0047e5ce2d52U, 0x38e431161341342bU,
  0xc5ed1b155524a5b0U, 0x83e0d15ba874e246U, 0x4a51a75ae6352b5bU, 0x1f44383905186ff3U,
  0x46e00b000a5353f4U, 0x61cb46beb556bdbdU, 0xdd8bd62356e1f30eU, 0xf0ea26e026daea1dU,
  0x437e8b1ca0345c3U, 0xb5d915e4ee4400e3U, 0x37811e300b9d053bU, 0xe4d0f01fdce35fa2U,
  0xdfe719191ff3ef05U, 0xd204f0e80cd99b92U, 0x3cbec2322e3413b8U, 0x6744c923f40faa38U,
  0x4014c160120a35c3U, 0x1d52df11ba7bbd2U, 0xfb3d0afe163506eeU, 0xfbac28d5ead7b24cU,
  0xd92281fddefaab26U, 0xec1ee80c181d6b46U, 0xe7ebcfd21ef3e102U, 0xa27bfec180b15f2U,
  0x171750ea0f2924U, 0x2c2136bed8f2ebe8U, 0x306ca81000f8d1faU, 0x10e4fcbefddbdb64U,
  0xd21fdfbca9cedad7U, 0x2fd2d0ea40ee1943U, 0xd5eebf11242d06b1U, 0x3d13ba24351a0bc8U,
  0x36310a55ef3125eaU, 0x2820373d28a810f1U, 0xd300290cc4cef2cfU, 0xf1ed00e9ce20f609U,
  0x10fbcd26c2c8d41aU, 0x10f3eeda2feb0e52U, 0xa2ef3d6e9010811U, 0x2eeefb04b0db18fbU,
  0x152ed56c08f755c3U, 0xafcc0819e8cdf8d3U, 0xe647e20ecc830734U, 0x16d21ef608dd27f8U,
  0xf83a07dbd0f008a3U, 0x22cae62440d0816dU, 0xe3bbcdf30404bd40U, 0x1f2f130cde033618U,
  0x104e2c55f951edd8U, 0xf9f7fc5430d14136U, 0x17cffcff00db0d60U, 0x2f2f026cea21d7f9U,
  0x49282b5ad2fc3ba4U, 0x520af4445656d655U, 0xa6b901c24919e12fU, 0xc343f40162d32dcU,
  0x14042636f600cbf0U, 0xe31f79d42e2ae901U, 0xe730e92246c91011U, 0x5c4c1e2ee0da28cdU,
  0x1bb4efe612500549U, 0x5d0beef93608ea16U, 0xd0c3f9b20510bdfcU, 0x156d545c0c1142b6U,
  0xf160d125d805fa49U, 0x76b5b9a8edcf2d9cU, 0xce3c3506a8fdbad7U, 0xcac00e0290d3e8d3U,
  0xd575d9dbaf3642e3U, 0xe49603c34413b0ddU, 0xbc19af18e3081a33U, 0x16d2fe1f083deec6U,
  0x314fe118efe4ebd8U, 0x3336a600ddce1ad0U, 0x337fe415bf9cf708U, 0x47d7db28d50c4545U,
  0x4155e8d3953731ceU, 0xcccf3bbde4db9ddaU, 0xc554e3012e4ee6f7U, 0x3e32da07ad2239a4U,
  0xc15eb935113def24U, 0x98ce080ebbb95205U, 0x4359f557cf34cc0dU, 0xd02d180ae604501aU,
  0x300bd7dfefcd1734U, 0xd40045b215e14509U, 0x3120071452e01bf3U, 0x2867cc1e1d434ad8U,
  0xead4b1bca005114bU, 0x5a9335aad4c0b623U, 0xdf70f094e0eb8dfeU, 0x9deeb2a0a6f9f6adU,
  0x87f5f10af4ddf191U, 0xaf948100bfe163d2U, 0xf602b4a68f0f8d92U, 0x2094c6b50a8fa4f0U,
  0xa4cabbea82d0e02U, 0x5cdd2716f0af0de2U, 0x6fa490ce185f9f7U, 0xf5e2eae3e3f7dd33U,
  0xe57c44ea12cb30baU, 0xeb50db0942d6fcabU, 0xe93651c7c4d02549U, 0xc7f6a7ffce1bcbc9U,
  0x5754f044e25cfc3eU, 0xb512fe2b24fa570eU, 0x405ce723139d2e41U, 0x4f482b35294a241dU,
  0x1ef93a023310f0c9U, 0xe8285250e5493ee9U, 0x1202c1ff42df1612U, 0xe305da302937f445U,
  0x3c09e4ef3229420fU, 0xcbc4c2f3bb2406c0U, 0x157e1a2aba4f99ccU, 0xdbfee009bd180b18U,
  0x2b0afa370de3f906U, 0xeec7d62409b6ced6U, 0xdb572024caceb6e3U, 0x4648dc401bd346dcU,
  0xe23ccac519483b4bU, 0xa6fcddd6f8dac4f9U, 0xd41d43cce3a1b524U, 0x160cd443cbdee63bU,
  0x9490024e3cd432fU, 0xbaf813ba1404a2b1U, 0xb728101601c9f7deU, 0x35f5e6d923d347b7U,
  0xe73e19be004c4c44U, 0x8139cf282522d5c5U, 0x11d169cbc8e6af2cU, 0x93e390cab030eeaU,
  0x10f4281106444121U, 0xd8f83cd22405d3ccU, 0x251c03091827f61eU, 0xe5441001e9fb10a9U,
  0x28f900e9e1f6101fU, 0xcf04e63003f8d405U, 0x20ec2fefd3c5dcU, 0x29e30b112cf8f0f2U,
  0x1dc80d070ae9f921U, 0x12d61a1cfbe88114U, 0x8dac7ee0bcf242eU, 0x3472bf604140419U,
  0xea050f22c62a07d0U, 0xebeb0edbf6f70ef1U, 0x1e1306382284f0ebU, 0xf32c2e2113fa20deU,
  0x30e02ead30413ecU, 0xd317f1dc39e6cbc0U, 0xc006da0ce3dbc22aU, 0x30f40f23faf327e6U,
  0x1716d7ea0905dae6U, 0xdf0c005f92529ebU, 0xf8f62f4130e1091eU, 0xe9ff04441dd5171fU,
  0x2b18e4e5b831f2f5U, 0x2f1410f6f803e51eU, 0xd8be0df81ee7d3d5U, 0xa25f4233819efe4U,
  0xac2507e8da0e42cfU, 0xecacecebb0f3da1dU, 0x9f008d842813e5bU, 0xe3529de17cf49f9U,
  0xc905befe05d612f0U, 0xc9cd6f51df6c83bU, 0xbdc02ed6ea2d0312U, 0xe66bfc1bcd0bcdcaU,
  0x1423deec1b30da1eU, 0xaaa9aae02ef30c0fU, 0x1e35c75dc9f34031U, 0x2ac3bcf120d7f96bU,
  0x19020a41d10a03d4U, 0xdca72328e632bbe5U, 0x90daf140d0b132U, 0x396ef6cbbb24f0cdU,
  0xdac40ac65cd9db0aU, 0x40b627efa2bfd355U, 0x5230eb42e6d9b22aU, 0x2d030b0300d1267fU,
  0x2a89432dc8dd09c2U, 0x51ce70640fb13cfU, 0xd0f5ccfd120b18d8U, 0x3d2441ffed0803eeU,
  0x30ef0fc14bdff512U, 0xf00e230a2e38e2f1U, 0xc714400e17ebbf2dU, 0xd13e0200d100fc23U,
  0xe8383132092c4e55U, 0xf52bf8f827b91fecU, 0x54025291013e123U, 0x1a19d61217454e0cU,
  0xdfe531ccea1c2b12U, 0x95e601fdf33110f8U, 0xcf0c21d9ea4002efU, 0xef0504dddecdc1b9U,
  0xbe23f4bd1c3cf272U, 0xc4fe12eedfd4b6a9U, 0xe8553dedc4fbebe4U, 0x1c43dd0e1207f127U,
  0x291636b42efad41fU, 0xf72f50de81ebe3c3U, 0xe6060421b0fca5c9U, 0x1f9feabdbd7e0beU,
  0x1659b3dbad14334bU, 0x14e61d07cac1c19eU, 0x214fcbe2de1916aeU, 0xea199ad862c049d0U,
  0xa429392c16d8dbbaU, 0xb3ec072fd2f70e04U, 0x35142be8e8b81040U, 0x3a0c0922d9f93c27U,
  0x17d935fa3e2a11d8U, 0xe02f0741dd248117U, 0xf0bf500ed11fcU, 0xf71edc08dce41621U,
  0xb902eac7dc45f4a1U, 0xded2e1f21c22530bU, 0x46f906563c1c515bU, 0xd6029e841f167e4U,
  0x2cf8dd21fb340b2fU, 0x1ce6f734c13bd50aU, 0xa4dd1e1f32d803U, 0xddf5436e60af930U,
  0xebd303d81bfec6d3U, 0xef25f2edf24503f0U, 0x2c0ed94c29cbfa40U, 0x3001fe0940fa281aU,
  0x2ed4f3e4f80a3ad1U, 0xbd53243223e91c9U, 0xc80dddcffdd9d7d6U, 0x14e400e82623c221U,
  0xdc133029193119b6U, 0x923029f9222f05eeU, 0x66cf0433f52607ecU, 0xeaccfc3109f005ccU,
  0x2f0a253b0a2ce014U, 0xf1e8dc28281c81f1U, 0xeeba0bbb432b273aU, 0x13142efbb2e7380fU,
  0x2b09d337e03910f3U, 0xd9d0c911bed6ef2fU, 0x193af43544e645f1U, 0x3bccce0642d70919U,
  0x14c903feff33ffd5U, 0x38d724fa3124b6c4U, 0xf4e72e0122190829U, 0xdae23a2ccceafe26U,
  0xd2fe504d320dac6U, 0xd8262cfd3e32e6dfU, 0x1211200624bedfedU, 0xee3118c407021514U,
  0x14bbe613eee62bc8U, 0xea08ffef1d11c8f6U, 0xd7e0e2ddc21e2debU, 0xd7d8c5fd07f9d92bU,
  0x1b4d293d1fdcd36bU, 0xf33a4e40261dc20fU, 0xd7ff63b2c1658db2U, 0xef2e0bb0e2d6d6d3U,
  0xc80859cede54577fU, 0x4bfd01828f12493U, 0x6378e418d2eef7d7U, 0xdc0cecf8df1440c9U,
  0xee46e1193d29e93cU, 0xc810c9fa14e5a0e7U, 0x9dfdf4c3d11bbcd6U, 0xe50739ecf30db301U,
  0xe010f1d9263ef64cU, 0xd30030db09c306f1U, 0x18531d11e4cf31b8U, 0xbfcbc7cb3bdd3bfdU,
  0xb21511f05233934U, 0xfb49c046ee51cb01U, 0xcc1d2a1e26b1d3c6U, 0x44e205c8d62ddcd8U,
  0xd05e232eb5b3b36U, 0x12d5130e3fc7f9b1U, 0x38053aef1f16ffdaU, 0xcc4e125382e5d04U,
  0xd0ec3416e2ef27c2U, 0xf4545305f1ccc120U, 0x161008f80d2fc2dbU, 0xf0e3e291dbfd8e1U,
  0xf1fa3fde3bcb017fU, 0x34f16f32e1b1f62U, 0x2140f8ad12ee0c08U, 0xbb0cf116e8dd09efU,
  0x4e1fe119d0bba8a2U, 0xb51c3bff1e33cfb5U, 0x4ca0bbd225c3927U, 0xeb00cb0907151531U,
  0xbabef7c411d2dbfaU, 0xf03905ce401136e1U, 0xa962cf7f332ce15U, 0x1ac2e0e40617f92fU,
  0xf51a2833c2e9bbb7U, 0xdd5627f12b152ac0U, 0x1a3409f8f25414f2U, 0xfaee07f927e0d8efU,
  0xaaf3f3083b0bbf34U, 0x18dde2524f2ed324U, 0x16a719f5c426601eU, 0xc80ddfd8bc200005U,
  0x1e31c1360520d7f6U, 0x81fd4e022accbfeU, 0xef210522ce1519b1U, 0x22dd150001c81231U,
  0x1608e2ddcaaafe23U, 0x18d7c4db1efa8513U, 0x10a13e509d8eff4U, 0xf72b10204b1a1a21U,
  0x320eca2dd1ed0cfdU, 0x201973b1eeb3d7e1U, 0x306fd0cf16ed1ef6U, 0x2736c4d3de1cbc48U,
  0xd5edf2abdb0fb018U, 0xcaeff6ce2548c960U, 0xbbbbd8f328f92c36U, 0x332ec0f2f4eb0cc9U,
  0xc52dc523fb35f517U, 0x2b07f9e223c1d038U, 0xccebf910d24ac1e1U, 0xd2a3c5f204f9fc31U,
  0x84019fe0c0c1bd7U, 0x7c8bf150aeee87fU, 0xc125c608fd2edf01U, 0xce200ecfc8052214U,
  0x410a3bc206e9eb54U, 0xecf30fedfd0419e4U, 0xdf01340026e2c02bU, 0x2f0602d3cf0715e5U,
  0x2efb243bf7254c17U, 0xfe3716f1e0edcbU, 0x344e3fe9fe1ff30eU, 0x352de3fd102ce9ccU,
  0x160737e72b501a07U, 0xfe100b35082bcce8U, 0xdef72cde2217d816U, 0x212429020d38ebe7U,
  0xe03ceefedd33fcd3U, 0xdaee12dbd912a931U, 0xf13524d4de19efcaU, 0xcaf021f506f24fe5U,
  0x300a07f4214b5eU, 0xccf8ebe412f9c3eaU, 0xbceadee1ca30c6f1U, 0xeed3102dde224b7U,
  0xe54931fed4ff107fU, 0xe740ee2e33cbd9dfU, 0xee2713031d0c37deU, 0x62bd410eb1a2b29U,
  0xded0837f0c4d9e3U, 0x73fa38daeb13fdedU, 0x15d1f5b810c9f9f2U, 0xf00af8c5f635f10bU,
  0x232005d11500d78aU, 0xc80ee018dae81d25U, 0x35faceec1124fc0aU, 0xe2c2f8f8c7f2ead5U,
  0xccdf2d09fce836eeU, 0x1ff0b73d24f3ffecU, 0xeee7460bf5e41904U, 0xfbe22b2a0ebdc9d2U,
  0xe0b20f94d1e300fU, 0xc1d4fbe4d8e62a1dU, 0xf0170c3a2bd30204U, 0xea23f1cec128ce1fU,
  0xf07cbfe1c1de7d1U, 0x7f1dad310ae0f14dU, 0x291bdcef3f34fbe4U, 0xd9f9153124321d25U,
  0xd118263e0920d052U, 0xea59400705004f23U, 0x32dbdecf0e0f1a33U, 0x7dce506f4dde73cU,
  0x552cd94394c6fd25U, 0xed6014070e31c6a4U, 0xb8dcda0910b2efbcU, 0xc10f6d509dbe696U,
  0xbbe1f0e4f51324e7U, 0xc3d19d66432c142U, 0xc9e10ffe14124935U, 0xc1f1bedf0b1a1e4dU,
  0x4bd9e90bd210b3c1U, 0xdf22fd0b6cd6bb29U, 0xddc12709f5063c2aU, 0xebb621cec505cab6U,
  0x955d60efe261f91U, 0xf034dfe23031dd41U, 0xacce10df33d5f03eU, 0xbfd5ce132f426d25U,
  0xef235930fbf8e0d1U, 0xc16e7f201e7418c6U, 0xc33fc64af93d152dU, 0x4c51192e2202fac6U,
  0xb2de51aef584023U, 0xe6654c51115a613U, 0xefca50f155d06b06U, 0xe0fa2e71f34f7703U,
  0x39411eca34113a13U, 0x811adaf217fa2b29U, 0xef0fb362ce4cc16U, 0xf5e5323c00061d3bU,
  0x4d09fff8f8f60046U, 0x26fb3725ecedbfd2U, 0xdd18f832451ae904U, 0xed19cb22f30215daU,
  0x34250fbb2209d428U, 0xc6e5ca28e5f91611U, 0x1410422a0936af15U, 0xd70b21def83423f9U,
  0x2c023208aefedc56U, 0x4e81cb8012df6ecU, 0xf8080b1a24d4d91eU, 0x1e38f216f21042bfU,
  0xd5bc16d4d2ec0e3eU, 0xd60a23bbf90fece4U, 0x209eef3acf9d8e5U, 0xc6e9edc5e5d1d8f0U,
  0xba63ebe0bee9ff21U, 0x1ae3ffdcd8aef0feU, 0xdb2df300d0f9e4c5U, 0xebfddbd7170813eaU,
  0xfffff822fffffb6fU, 0xffffffadffffea13U, 0x256fffff84bU, 0x629000008f9U,
  0xfffff7c8ffffe8e5U, 0x1146fffffff4U, 0x134000000d25U, 0xfffffb1cffffef98U,
  0xfffffa5700000abdU, 0x49d00000f61U, 0xffffef0d0000016dU, 0xfffff863ffffee8dU,
  0xfffff0c40000041eU, 0x5a0ffffef9dU, 0xffffff320000000eU, 0x174b0000013dU,
  0x35afffffbd7U, 0x5b1fffff6e7U, 0xfffffbb6fffff5f4U, 0xb54fffff9c7U,
  0xfffffafb000004edU, 0x3650000011bU, 0xfffffb98fffffe2eU, 0x1278fffff0a4U,
  0x115600000efbU, 0x10bc000003c5U, 0xbd5fffffd60U, 0xfffff6ff00000475U,
  0x640ffffff36U, 0xa22fffff8e5U, 0xfffffbb000000909U, 0x84b00000340U,
  0x35d70fd12ef7ca34U, 0xf1e0004503bbed13U, 0xf711c4df292e1213U, 0x2c93103326054546U,
  0x640a0e51e5eaf22aU, 0x6bd844b21a14f021U, 0xfad8de22e50ff94dU, 0xebe8cc2758e122fcU,
  0x948f4c943c0b92cU, 0x45bf361a02edfdbdU, 0x3fecd318f2133040U, 0x1cffcbd263c4c2f2U,
  0xfc26049fd8af05f3U, 0x13150ad0c8d5fcdaU, 0xb1f316e30fd2d5b2U, 0x3ddff6ebcce6e23dU,
  0x60370942d4d315acU, 0xc72e1dd233f0b8b5U, 0x561a0424fb442256U, 0x51f5c1ff3adefceaU,
  0xbff1323c4002ca0dU, 0xd5dbf848f92636f4U, 0xd51b0f2d4c7fed47U, 0x3dc9dde321254622U,
  0x86470e13ffffcaf8U, 0xd42bf4463ded3bf0U, 0xb9a6e10033e1c63dU, 0x1231422cb44fd22fU,
  0xf812e5dcd73acf15U, 0x22d0c88fdf26bce5U, 0x10ab57dfca3fea3dU, 0x2b3aed5915ded613U,
  0xbcdefdeecfcfb439U, 0x14113654f0bf261fU, 0xd0c705ae225223f3U, 0x3f0d03f0132fe91cU,
  0x3725340718d8e62eU, 0xb9e82ef01ec5e148U, 0x3eeeadc06bfd124U, 0x5ae144bcd70d0aU,
  0x1f1bb6063952abddU, 0x33b53e637fc8fc3dU, 0xfc02c1ee309dffeU, 0xd6333febbe00f85cU,
  0x1ce729d0f0ede83dU, 0x173519f54cf1020aU, 0xd0130de827a20751U, 0x115afc511be30639U,
  0x141af117c8d54be6U, 0x13d020d2f9decf05U, 0x32cdfb09c7f9b701U, 0xe0fca2421d01e91bU,
  0xc0171c08f0cf3028U, 0xf8d2d00bfed7e42bU, 0x261ae5c7d028c4abU, 0xf1f15fb282f25c9U,
  0xf7d5eee6aee5c6f6U, 0x301efc06e6c6f434U, 0xdb0a2d15e00633edU, 0xcdd53516e23bd3c7U,
  0xd4f105cf6822e0d7U, 0x9f1b34280b1531d1U, 0xcfb35da2203c325U, 0x1b3021ccb158be11U,
  0x17434e472b3f4cffU, 0xf0e30dff260d19daU, 0xf74ad9172be928cdU, 0xbd7ffa204333cfedU,
  0x3645ff3f42c525e6U, 0x21074a57b2fc2608U, 0x840d9fbeed611a1U, 0x16c53e1c151effeaU,
  0x5bd1a073add1c18U, 0xc5caf7f50cf11ff6U, 0xec0319d61232f41aU, 0xe81022a1e24fd10U,
  0xcdad406dddcf7edU, 0xd210dba1060c1906U, 0xad4272943f2ecf3U, 0xede8dbebd8f024ffU,
  0xdaf491ea49da21f3U, 0x13d61cf4f8d3fce5U, 0x41a9ded8ee03d411U, 0x7daf2d8cefd00fcU,
  0xec0ccdedabf2f920U, 0xd8db00c83725bae9U, 0xdcfe301a150f3a00U, 0x22e3fc46ceed11e2U,
  0xe83fbd1be6e6c3fcU, 0xc5c8de4b3fde2cc1U, 0x1e05edf0fa3ce13aU, 0x1cecc8fafbf6eddfU,
  0x3f919ecd6d21ecfU, 0xf50aecf4f6cd1530U, 0xd21fd5341afe40e7U, 0xb40f430060e1113U,
  0x2247fae30efadfd4U, 0xf70407eb200207beU, 0x200be202fe08e225U, 0x1b4c0a2bbd01c937U,
  0xfd1102ee04ea18d6U, 0x3c192f121d24193aU, 0x150804cce012d017U, 0xec10f6fe0d1fe72dU,
  0xccf28eb6cab9d30bU, 0x34db2522f111e5d6U, 0xd6cd2cd31f13ffe6U, 0xda09cfffb0fc291eU,
  0x136f0e536210bfaU, 0x6ed515c034dceeeaU, 0xe1bc0ef30ce70f1bU, 0xa7d7f1db44f9d3eaU,
  0xfd490adbe6f91fe6U, 0xf3bf4223383e230aU, 0xde0ec9f2183a1009U, 0xfdde21bed8e6ef3dU,
  0x1fda0700da06e31dU, 0x7ff4ffb21d2716e4U, 0xb9d1cf1c2fc6faf0U, 0x1bf816174efc00f8U,
  0xc952b2f81358bdc7U, 0xe2d9f7f2561bff04U, 0xc7e90f1d170f07dbU, 0x1f197f1f26cff930U,
  0x46e7d5ceefcf04ccU, 0xa7fb530321ead0e6U, 0x154bc5170ada181aU, 0xff42074ef40f3ae0U,
  0xf82af5fd310b1d19U, 0x34e92037e6f6eed3U, 0x2d20d049f7ffc5eaU, 0xfcb3ebb8c1e42efeU,
  0x15e3cdcf45e113e8U, 0xf4123dc53a17b04dU, 0xca18152405ecdfecU, 0xe246c31cf81a4c3cU,
  0x1d1fd2f4ed1bee56U, 0xf618cbcafaf4c1daU, 0xbfee21fc2d26d70bU, 0x548db1d16c922a9U,
  0xdb00cccb08e7de2dU, 0x27c50c0238f90536U, 0xdf2c706cb0cc1f6U, 0xce36d9d4f8203400U,
  0x81fdf8a3af931901U, 0x38b851c6cdf9173aU, 0xcb5488dcd5a1ae20U, 0x1424bd3f7598db1cU,
  0xecd8d03c8e45dec1U, 0xfeae29d7fd1be815U, 0xc0e21bece63181aaU, 0xb3912f29aedde43U,
  0xd29b120b9a1a10a4U, 0x3019a0c319c80613U, 0xaf8b16a98ff788dfU, 0x9ec29ca7ebf1ce39U,
  0xe0aea53bf6acab27U, 0xeee2eccdb93f0cefU, 0xfeac1b228ed3d4abU, 0x3ba5cbf60deae5abU,
  0x4d2c5dfd1a49b7a7U, 0xba13d9918492318U, 0xf518e05440a1fc18U, 0x5b2db4f37b9aaaaU,
  0xce5a1e119bfa2ebU, 0x10ef03b5f850cf42U, 0xf340ba3fae019a39U, 0xb12afdd1b730cbf4U,
  0xe7bab406be03cac9U, 0xcb261130b122f533U, 0x16bd47bec3cef707U, 0x26ffebf6a82cebd6U,
  0xd4fd6454d552622U, 0xcee521ecdfed34f5U, 0x202dc3ef03de8921U, 0x811a070adb11b60eU,
  0xd04016ed5b12e11eU, 0xfa0e2db8181c2a44U, 0xeefafec330c83ef2U, 0xfd220b3facdeddbeU,
  0xf7c9ed2e3c4ada17U, 0xfbd44118fce71001U, 0x132b2dfc0a909efbU, 0x9222f30ae513e700U,
  0x8dfcc6e9f937f2c8U, 0xbf41c0d2f3db5037U, 0x26e32e5227ae0835U, 0x2003cf2000ffed4U,
  0x1649f02beed916baU, 0xf91134feb8353edbU, 0xc3d9edadf0efffcdU, 0x2fe824f328261614U,
  0x10f406f68429dd0bU, 0xeeb6ccda32271694U, 0xeceacd6dc7102f67U, 0x4847fb99c433d9d8U,
  0xabfbae183ad6ee3cU, 0x8cceedc3acb1ba4U, 0xfef4102dfce64acaU, 0xd826d4ffc21bd092U,
  0x7fe5291002d41bf0U, 0x23da1d45171bddfdU, 0x2f23fc8544f1cdaU, 0x3ffffd3c7fe638adU,
  0xec311d4c01c02047U, 0xe44e4660494b4c37U, 0x132352ead94a5e3bU, 0x56fec7c7bbc8022cU,
  0x5dc671bf1ccb5423U, 0x60c0d0f0a2bd54d4U, 0xd54627deb8e11734U, 0x5e3001e60c60f97U,
  0x10544fd306e0dcc5U, 0xb2ebafbc93ccecc2U, 0xbf34d0d9e60deb88U, 0x27a78ee4b6c3fd23U,
  0x2ba0fda78fec0ef4U, 0x301d00df729f4U, 0x607d41008cba7daU, 0x15c721b8f41d28d8U,
  0x2632cdf2fcdad0deU, 0xf0db26f311d9b042U, 0xe9dbdb250438ffb6U, 0xb813a9e8ad3fb808U,
  0xc218ede1d82bf923U, 0x142b30161b3a3621U, 0x21db3313e3e1e31fU, 0xf47fea85bc0f453eU,
  0x1ccb00281f2cf1ebU, 0xa2c3dd1921d4a6cdU, 0xe3bce1e4ba7241cbU, 0xd7eb07c588fd2227U,
  0x2dc5ece2fe0406f5U, 0xf507fa13d8eee759U, 0xdd80d042d15c101U, 0xc3545dc6d5055c10U,
  0xf338fccefae8ddfbU, 0xffe130b02ebcdf47U, 0x18272d33de10d831U, 0x402bcf43ee43e626U,
  0xe9f117d92f4227cdU, 0xcbf0d12ce61c41d1U, 0xf7f7de4944083732U, 0x2e0005050f2538fdU,
  0xb21ddffb0a222f3eU, 0x9d54e26ddefc108U, 0x37ecf8f8da1e4150U, 0x26334be5bf0fea18U,
  0x300e69c81d2f60e8U, 0x3aede408f1da121aU, 0x42f80f4c0a25189cU, 0xe9c15ff83c00ddcfU,
  0x45f833200307e3c8U, 0xf70822f8c6232257U, 0x2d3afbd620c41934U, 0x7bf0ec114ef7f0fdU,
  0xcddf51f3d4c3fdbdU, 0xe6ed7fb7ae1014afU, 0xe5fa16649ea6bbf9U, 0xf858c1092b07d22aU,
  0xe54208c064d8dc39U, 0x6593adbc0aa9f015U, 0x8500e0b8ecebcc97U, 0xe2dadf1442d62fb5U,
  0x13c95cabba19e625U, 0x3799d437906cdc48U, 0xf4861ba1472310bfU, 0x93dff519e2a903c0U,
  0x1693b41313fda3dbU, 0x8e4d0d409e06b0f8U, 0x2c3b83ce1de50dc7U, 0x2e89e7f207ed09d8U,
  0xca9d2638d856bc4aU, 0x4ecbef2e1219e00U, 0x999bab6586830301U, 0x21b1fdaaaad4db0cU,
  0x6a9d3ec4b8502f3dU, 0x82edfd10e1bde601U, 0x21de1ceaa7ba2fb3U, 0x462e02a91032b2U,
  0x81d96db2203f3dd1U, 0xfacf3e8af9fe401bU, 0xec5162efe59021ddU, 0xf848edd1cf954bbcU,
  0xc61b0be6efe14f28U, 0xcbc24f903807f1baU, 0xaaad3aa03a9048ebU, 0x8f206af244bbbf0cU,
  0x285597152d68b217U, 0x4bf240d69b12bc4U, 0xd6a4c6cc3e4c02e0U, 0x3615232c38d6eddfU,
  0x35d507d59cac4f34U, 0x4d1818bef923f62aU, 0xb629fc963c944e29U, 0x390ebe72d312332cU,
  0xf9f21a242bf0f53eU, 0xf6e4e9124ddc4410U, 0x4fc2ab24084af74fU, 0x648d52052f9de313U,
  0x4e5e0e9d0f922ee2U, 0xd2b9e6cf4f433005U, 0x443223d458df6e1cU, 0xe20c846c39ee43fdU,
  0xd93d0ddec7d5813bU, 0xf69a3005581d49ddU, 0xf00be00c522d1123U, 0x403334e0410bab1cU,
  0x6307f702c5bd26f6U, 0x1e1fda9d4e415dbU, 0xc219362313ec255eU, 0x47480ce93abee3e5U,
  0xc013231c2b000607U, 0x3fcca8101a3a1028U, 0x3e2be6fdf127ed0aU, 0x11c6ce3217cfe3e7U,
  0x3b20e3c1b61bcbd6U, 0x81f904f3e41fdc1eU, 0xa3e06132efdfcf7U, 0x20f50c419710f61fU,
  0xda32aa0221e40af3U, 0x1061d04020519c9U, 0x31eff8e2e71b010eU, 0x46fbfec6f7053200U,
  0x3dfae0bc3316d0bfU, 0xe0f51102dfdacaecU, 0xd5f720fe3b332315U, 0x5eb1afdf4d614ddU,
  0xca11ff0622ead2U, 0x2de0f70e16002c20U, 0xe201e134fcd5df1cU, 0x3014f7ea0b0d3af3U,
  0xf9e30ae2372af3ebU, 0xea3c39382919fddfU, 0xfd1d09ff0d304223U, 0xf9241c04f628d60fU,
  0xe80aefd6e10555d3U, 0x1e0ff413d8373f3cU, 0xc22fe414d9e4ff17U, 0xe51726103efc0d00U,
  0xf05f2dff83bdf32U, 0xe72a3e4336c3fe3bU, 0x1afafb21fe1be2f9U, 0x37ef09dd0404ae3fU,
  0x1c81e3d5fe13fccbU, 0xdaf0a800ed26ea14U, 0xdd4239e80ec2e0e5U, 0xbae902f8f8f1f4acU,
  0x1df4f7012704b2daU, 0xfcddcc4de910e9efU, 0xd6c6d8f2b939b012U, 0xfe322e9e0e4af2aU,
  0x6416e8252d2535cfU, 0x101097c8102ee3d1U, 0xd63b27172c1e14U, 0xb6361bdfc4160225U,
  0xfede2a2d25d41b19U, 0x29e2daf9140d2cafU, 0xdc15c7f8e6751523U, 0xbd6271deb15d8acU,
  0xfce456403642bf0aU, 0xa6b55af22faad751U, 0xc4c2cefbe9142a2bU, 0x13aecebf271ae8eaU,
  0x3f0ac9fe2aca47cfU, 0xddd1103faff4b4eU, 0x342fbee9070e1e3eU, 0x7ebc2c1ad70c3c14U,
  0x11a5fe2da7c446c6U, 0xe0beccc7291feeceU, 0xd5e2b614d7048209U, 0x12fe45353ab2de5aU,
  0x50fdc5141dc5cd17U, 0xed18c88c24cadae2U, 0xd9fdb71e1b480ff4U, 0xeeb0e845a5ea0b17U,
  0x6e10e4da2cac2304U, 0x1e33f80a4bd9e604U, 0x239ac712e93af562U, 0xf6588117a9c1c94bU,
  0xec36dcf3f6e6f7f0U, 0x6cdc1016e4bfafc2U, 0x26bad3244409dffeU, 0xd8f1d1b9d5d7f9caU,
  0x2f32373758f012U, 0x135cb5abb30ffa63U, 0xc26e38bcddc607efU, 0xdb3ac22e992134faU,
  0x2d1cdf319fe7e9e2U, 0x98400546decd492bU, 0xda08ccd41dbf9cd0U, 0x15f3191cb73d4601U,
  0xfe813941b6303cd3U, 0xbd54c5bcb1bd39e3U, 0xef096e4aecc4fedfU, 0xcae5222e14c63fd4U,
  0x51148484ce422e7U, 0xd41feec63b2e383aU, 0x5811eecead0cd223U, 0x17d510e5f05fdd05U,
  0xf322321e49242bd5U, 0x2e2230c2d432ead6U, 0xe322411f44412b3bU, 0xf127f6e45e1be000U,
  0xf7afd8e02d2b2c22U, 0x3f35eac7d832403bU, 0x42f519d2be32f2c3U, 0xc5e31fe94604d00aU,
  0x13ebd361e6490f0aU, 0x22fbcd0cf7e55f3aU, 0x1a3cd4f8d41a32b4U, 0xe4d5dfbda9e04cefU,
  0x602b0d101a5f41d0U, 0x2879e631e31643daU, 0x4de93f36fbb8ce54U, 0xe8f5d31d0a38d74aU,
  0x16ba8609ecf2dfb4U, 0x6e48e65f03f4360cU, 0xd56c9ced8443a8eU, 0xe29cf6c12ae94343U,
  0xe2283b230b49ac10U, 0xcb70413860f9f2f4U, 0x5abac638ec0df40dU, 0xa72db41b23160dc4U,
  0xf13c1bfa1ee92d22U, 0xd8b7efeddec704ecU, 0xafd254d8c7dee09eU, 0xb93814edc2750eaU,
  0x4cc3f556c525d6d1U, 0x236ee9aadaf821d4U, 0x46a8482ff189ebedU, 0xf13820b4c451d2caU,
  0x2b0c2a05fb0d12edU, 0xff013233f8e819ffU, 0xf42f493d3e311f00U, 0xef242aea3cfbf46aU,
  0x21e8f53b31df36f7U, 0xac0c4d1a023236c1U, 0x16e612ebd8580152U, 0x213d0b00bcf3ffeeU,
  0x273251da0715e8c3U, 0x18bbcaf116e6c74aU, 0x3d41e0e815cf1ef7U, 0x160623fc4ae30581U,
  0x56e61fc8ffdedd18U, 0x9f2001e5d8e11a0eU, 0xcb4816d3f8bfd7baU, 0x55aecb0a0a1b362eU,
  0xdfdb3b15cebfde33U, 0x15d6110ae7ddcd26U, 0x3ea61448dc12d40eU, 0x32b8ce0be2400daU,
  0x9622b8cc63d1bf08U, 0x42ade2f807e2ecd9U, 0xe503cc05c62c10c9U, 0xb2cb13fed01409e1U,
  0xbcdd5ea07c8f9deU, 0xe310240b3d3107f0U, 0xdfdaf8f12a18f409U, 0x341725c0eee9281eU,
  0x1a310bd5c703cb04U, 0x251dd60f22c4d122U, 0x27df110d19091bfdU, 0x231140b17f5ce24U,
  0x15e123cdc508d4fbU, 0x2ce1e312270805d1U, 0xf1f8f4f2cf2b33f6U, 0x291de49fff26fde5U,
  0xe8e6260739f5812dU, 0xfe19f21a1bc8cde9U, 0xd4f21216e3f03b0dU, 0xd21f01e8010bde22U,
  0x61b12091edbd92cU, 0xfecafa0a2d121f07U, 0x30dd0400fee8fddeU, 0xed00de20fbe83aU,
  0x1ddf017c90ab728U, 0xec09f2dc14e3ff2fU, 0x3dc201b0a1c5728U, 0x130cfa27ed00ef0bU,
  0xfbbce9933cce6eaU, 0xf5b12d24cb02de4aU, 0xf4fbf4faff07a6fdU, 0xcea53ab345ff992bU,
  0x994efdd09c0bbeb2U, 0x413703ffc71ede48U, 0xf8fee72b32f5ffbdU, 0xc08e4283ec5515aeU,
  0xa00b2e22adf24cdbU, 0xc3cd23e9eadc55ddU, 0x5c27c9ba48bef85cU, 0x8fe89df3f84c04f4U,
  0xeab4271009ff5817U, 0xf0412a4433a4a62bU, 0xf1b2efe9f2a9a5a1U, 0xdf40ba9e909faa26U,
  0x9f813aa5eb24dbf8U, 0xd8391be4113859e7U, 0xcbbcc19ad3243aa2U, 0x3c1abae3d302f627U,
  0xb741d3b6eee3a3U, 0x35edaebfad9eab23U, 0xa70f302205eaad1bU, 0x3bc9d1c8b4dc4123U,
  0xbbc8e27252dddc40U, 0xeb583513f4b3a92bU, 0x128e053eded67de2U, 0xf0fd045808d61d86U,
  0xf20b0df9fd01326U, 0xfbdfce4ebc0fe2efU, 0x3daedff99ee411b6U, 0xdaf1f036614ae839U,
  0xd8810b754dc06127U, 0xab3f29d1ed1cbb3aU, 0x5a1220ced54bf094U, 0xbefba8e00b0dffc2U,
  0xd6f9fe0a825e02f5U, 0x306334dbd45f4a2eU, 0x4aaa0b2a049cb8ecU, 0xb3cf1d3dd6be8952U,
  0xaca594204f4dde36U, 0x17408ccccfc22e54U, 0xddca1c04170f08aeU, 0xccb4cd44875aeb9cU,
  0xf8ece5f7f75ee048U, 0xfc2608d73f095102U, 0xe217472f129b07dbU, 0xcc0a17d4422900d1U,
  0x1531312e4eed3034U, 0xd00af9d7271d0de4U, 0xe7c0db5b30eb5af4U, 0xb34e06f9962a0006U,
  0xb625d91d16e91f37U, 0xcfd0444da816ec4bU, 0xe03992b620e0b5c9U, 0xcadf4af6073734b4U,
  0xd9ad0613a0fed5e4U, 0x3ef4fde0bfb31c3cU, 0xea0fb55f3db2e5f8U, 0xc51e41e3e5e30a39U,
  0xd5e5fa193ecbfaecU, 0x4d0ec810e373af6U, 0xb324d8c9142405d2U, 0x14fe19ecda445e15U,
  0xf734b3cb0dbd9d0bU, 0x101533de421abe22U, 0xdcd1426edadda42eU, 0xd44f1d12a29035fU,
  0xf3c7f4b41dff040eU, 0x28c750e025201d34U, 0xc505e3d0c9d8bcbdU, 0xf1160ddcf9f52818U,
  0xb3c9c8b3c6d2d3edU, 0xd63008c201ce0e29U, 0xd9552135daf9d8ceU, 0x9a130cffd6da3921U,
  0xab0edecf351ec2dfU, 0xe31bdadb36ccd310U, 0xcbb5f4a9afdc06d9U, 0xbe1d129bfff8e2c6U,
  0x2a4cf81b2000372fU, 0x305a05f81cc008ffU, 0x8abe2fce7c63b69U, 0xc4066a20df21452dU,
  0xcefb3a3c29f333e7U, 0xa93a5729041be8eaU, 0x4b037e718511219U, 0xb56263c6d011d032U,
  0xd8fdcc1d14d11af9U, 0x2812233adafe1017U, 0xaf2b08ed4100102eU, 0xd47f6d10f24e342cU,
  0x27d1a1e80b03fce1U, 0xee25e6e3f913011aU, 0xfe111715dce00810U, 0xe6ffe6241f49f617U,
  0x959dedf0d01132d2U, 0xf5201d151bccc91cU, 0xcf4f44e4b628dcbfU, 0xcc3ad6c40510c3d2U,
  0xd2e92828e429d153U, 0xa206db26db411a0aU, 0xef102eadd7ad81bcU, 0xbdc236ff1d47bd24U,
  0x5e3e455065023a05U, 0x1317218ad8b0f606U, 0xfce5251f052d1ff9U, 0xd04dedf618eab43bU,
  0x9bfdd1122a0658eaU, 0x38d532ffed513a1fU, 0xc911c3dfec52e68aU, 0x9bd234f7be4ce98dU,
  0x410bea02cffd0bcfU, 0xc52a04baac0aef59U, 0xcdd2c93ce4e7fa17U, 0xb060460a81afe1bU,
  0xb621c55b4102edfeU, 0x2fcb2063aeea6305U, 0xaf90ed0dddecff5U, 0xdeb0f030d592c9dU,
  0x2df9b5f4f209c3d4U, 0x323a421155e82021U, 0xe44315afd2211a09U, 0x4a0318811c1cec1cU,
  0x1b070425fdccc726U, 0xc3a00bff114b435U, 0x1200eb4af03b31e0U, 0xc829de0c0730ff1aU,
  0xd6fd3ceffc0a1806U, 0x2d3041ae6ee4325U, 0xfa5bdae9c9342d98U, 0x3aba24ebcc08f924U,
  0x46d104b0ddc0c21aU, 0x1bc5e6b73abae445U, 0xd91e34ef16a52714U, 0xfe3ec2d3f1cffae0U,
  0xe6e5b7d50efbdeffU, 0x2dcffd353b212502U, 0xbeb35d1dd3432dfU, 0xd62a17b226d4352bU,
  0xd4dfd2f5df099a07U, 0xf029fa0ef629b9d6U, 0x3c281ee1ef03df1aU, 0x45f023c51736b9f3U,
  0xf159c81d2019dafeU, 0x806edf5ddcff7b9U, 0xf3a2befee52fc74aU, 0xde0259c3d2a59fecU,
  0xed0048116fa62affU, 0xefad46f6ce58b3aeU, 0xcb2c0cee4d4f20edU, 0x64f225eeda97ff5U,
  0x48fea8ee19f0fa2fU, 0xe36f9fedab4fabcU, 0xfa4904ece9050913U, 0x746b2cd2291cabdU,
  0xd6d32c9503dc39efU, 0xcfe7121a1734e438U, 0xeeeaa2e5373629f7U, 0x1636d859140568c5U,
  0xeb45eef6e4144307U, 0x1648fdd611431f0bU, 0x29ecf3e3ef46d6fcU, 0xfd11251ccdc4102bU,
  0x262939dbdb920bf8U, 0x21d52210c7e026b1U, 0xbf3eb6dd390b301bU, 0xe403e644b7bc61dfU,
  0x12020f23dee3b102U, 0x35195b14e3e50aadU, 0x13face22dcf0182aU, 0xe82be81856db0940U,
  0xd13a21f8c1dc1ce2U, 0xf5c2fd123c3cd6d1U, 0xce42c0d461904daU, 0x47d2453aef013c0dU,
  0x15ec0afd4a35fd32U, 0x3508eed9d7101bf9U, 0x31f4010e524ec925U, 0xcd9e60924ce20e3U,
  0x541c38e1f123f5d2U, 0xd024ef311cede024U, 0x25ee37044acb0105U, 0xe5d1eb531bd83dcfU,
  0xb4df6c0c20d14808U, 0xf8d9fb50293fffecU, 0x397f0a09e5bf3209U, 0xf5ae11e969aec3deU,
  0x35e534cb35dfb8dcU, 0xe4dcbc94b7d3ec2aU, 0x3c3ec3fb2d13dae0U, 0x6ce61e1dd7ea0abfU,
  0x9db0d042dd318ffU, 0x170101db16223221U, 0x1a19cef0f5f6ca06U, 0xd9411fe07fd1e2dfU,
  0x92446fd0b260013U, 0xcc3b063ae9d23b45U, 0x210ffe3fe1e8cdf2U, 0x1d040c2adcf5fb2fU,
  0xe1cb3dc8d8dd21e0U, 0xff24dec0ea3cee03U, 0xdbe8ec06bec5ebffU, 0xb136b10a220815e9U,
  0xdbb0152b23d7a9f5U, 0xb0cec21ad50bed1bU, 0xf5c8d110d15dbf14U, 0xe7cee1b3fa25cfc2U,
  0x40c10a03fd26382bU, 0xe6ee38d8d3f9e31dU, 0xdc105722f41c27U, 0x43d0c1e0bf70a4dU,
  0xc0f02b34f6390d1eU, 0xcbdcdb483631332dU, 0xe2fe4547d26d2edcU, 0xc9211db1fff91b03U,
  0x790ef40c53c27f6U, 0x48adeb00e22db593U, 0x5a1531de11e0400bU, 0xd940cfc50dd695cfU,
  0xe5baceaeb91718cdU, 0xaed2eb9ea0bfd617U, 0xc931d687231026a4U, 0xa83a1f45b6474debU,
  0xe31e811e369c4206U, 0xf23050fc8ed40a20U, 0xb93ff331aae5e9d2U, 0x15397bfd505e138U,
  0x1658b5d223159e26U, 0xa2fcd3cc18c5fac5U, 0xbc99c0ea9bc6a9daU, 0xf2f244c6fe088f30U,
  0xde30630bc44b9fb8U, 0xa5dc52a13f105541U, 0xfad6d58dd7fd37b6U, 0xb0ecfc02f43a5111U,
  0xd1fb52ca4aee22e0U, 0xf1bf22010b8dfad0U, 0xeec8be5134a6e49cU, 0x359647bb08414b2aU,
  0x492cf932f02bfdf8U, 0x206ef3f14fe0db8U, 0xdd15be4d15d63027U, 0x191e294142f0a828U,
  0xddda2fe0258e05e4U, 0x10fee120aeb7fe4fU, 0xa239a52a321e2a05U, 0x64e70825e7ec3ed9U,
  0x90f8e3efd50f1414U, 0x2bc7f8cebcfc120eU, 0xd821253cf4b2c325U, 0xf6250ef433951300U,
  0x2d1dcca418df32e3U, 0xd9d9f132e125b803U, 0xba4881011ee1d9e6U, 0x39e72322d71722b3U,
  0x1658f91932fd01e3U, 0xe3517b634f5271eU, 0xf061a6bf717dd58U, 0x1848af05e0f21132U,
  0xda0b1b0a4a9cfd08U, 0x15151635e209c7dcU, 0xd7ffc6ca2ef43704U, 0xd8e4334d2d237cd5U,
  0xeaf1f93f36d21ef0U, 0x15a24aeb26f93af5U, 0xc0fbc810292b400aU, 0x51c41df407dde407U,
  0xed1c1bce48b71f0aU, 0xf12c05e314cafbU, 0xc4eeffe4d053f18U, 0x2455941fb6ca361bU,
  0x33f6da66e1dac6caU, 0x2d05f302fb1d00e5U, 0xe804e5e135fe4ce5U, 0x2c99e70635bcc4c9U,
  0x383a0a3fbf10ec1eU, 0x955a4833c2f0f7b4U, 0x255af63e7fea301dU, 0x25cbd4e51cd558bcU,
  0xe1e9bb5f1f1ec9bcU, 0x1c0e000704cac6acU, 0xe1f4ef20e23ed260U, 0x3ee7cc6406a4f811U,
  0x20c0c9b4b8e1fe13U, 0xf232c8b6d940ffebU, 0x113f23fe2ede5b08U, 0x2beea84ea1c41011U,
  0x51205dd6c7c31c17U, 0xd1dd66e30e1008c8U, 0x11209bf12521f8e2U, 0x6e131203d1e11f5U,
  0x3f1320d432bda701U, 0x65b4c35310c7bb66U, 0xdbfb03cd19f91c37U, 0x2bc9e7d90a1cc0d0U,
  0x3ecb47fec8d2f9f9U, 0x18a10b1df74ecbb9U, 0xe7d01422e73a184fU, 0xcc02c3c7e6cbce12U,
  0x5c123037ed9b425U, 0xb2efcccae381eaU, 0x92bfd2db342d39f1U, 0xdb0f11e600d21fb5U,
  0x631d1ee2f012ec25U, 0x1a1122ee100700e3U, 0x518dd41f4372761U, 0x5854c4dbdbe7021fU,
  0xc0cdf7130908ebebU, 0x2706403d0acc97e2U, 0x3cfd3d41434405faU, 0xdb2e1df349fd240dU,
  0x9544baf51491d601U, 0x584544c02ec04dfbU, 0xf35dd420dced019U, 0xce88094249cc0c9bU,
  0x915b30f5cd9e1c16U, 0x26aeaf1323fea5b6U, 0x18ce24e0edb91b03U, 0x4910e41bd5a14138U,
  0xffdda7d9f9f9391fU, 0xb815bf1c1db75884U, 0xba07b9b1d9c619f3U, 0xf8d0f01ba7aa811bU,
  0x8f1ca6bf49adb905U, 0xdc1de19e2a4ba1fU, 0xfb88a9b9c804b1d9U, 0xb2ecf6bfd3ff839fU,
  0xc9d72ef1b98ae0d8U, 0x8da42eeaa2dbbd9U, 0x3663488ae79896b4U, 0xf5c5a3cdc9c73010U,
  0xfb6b09eadbfd165U, 0x640ab6eaf2173904U, 0xe358e3943f1f1a30U, 0x5806c0f7eba6e090U,
  0xabb52eea03dbd748U, 0x3ea8f6ca091fd7e2U, 0xf81119ede6e80feaU, 0xcbff3e236e382fdaU,
  0xe00bccfea51dd825U, 0xa51542fd2ed9210eU, 0xf51bed2e1ed73f1aU, 0x5532442cb7adfe3aU,
  0x4ef1764cbe1c09faU, 0xdaf29bcce44ad021U, 0x6736fd44feb035c9U, 0xb4824e243ec2b881U,
  0x3cf0d0d91f2e7f1U, 0x84d8f9baf19bacb9U, 0x1e11a122d0fc36beU, 0x6e99973ead153fc0U,
  0x2c739042fb403feU, 0xe59df412e446fa88U, 0x53ffabf7b0033410U, 0x3b00b4cac69600baU,
  0xdfebf0a6f90dc418U, 0x9bc397fe01880f9cU, 0xbe8a0e32ae23c98U, 0x30f6c93016225011U,
  0xfb21e4e2eb191205U, 0xb01100e10e02714U, 0xe21a0736d7090f35U, 0xfd33fe02f315ea2fU,
  0xd528190719f22725U, 0x7fe9f8200b25ebffU, 0xc1e0ddd1ddfe15cbU, 0xb9d22fc42e0c31caU,
  0xd724e5c5bbefc715U, 0x1b05f7fa27dfebe7U, 0x3f9de05def72415U, 0xda5d12f8c803fceeU,
  0xbef2e5111e0af82aU, 0x5df6ffeb09e6e916U, 0xdcd10a14ca031de7U, 0xe4f418145d3f0e14U,
  0xf9d6270d1d07df08U, 0xf3fbfa1b13df23ffU, 0xfe10fddcf81c1dfaU, 0xe1fcef101dfe07d2U,
  0xcff7f1164cfe051fU, 0x1e08000c2638f4f2U, 0x1e01d202002cf722U, 0xee1bf1d01018e700U,
  0x20bd14fb11df10e9U, 0xffd8011bd0d139dfU, 0xe92335bb35d23833U, 0x2004ec10ebda0dU,
  0x2aefc134e8f1e4d4U, 0xb421c4d63cf529e1U, 0x18edf131cee74827U, 0xd8f92cf9f6f9c01aU,
  0x20f7eae3c7d5a8e2U, 0xf833c0e20d3310ebU, 0x171125e922321ee7U, 0x36e5f526cf244cb8U,
  0xf92bdbda992cbfd3U, 0x970ef4171f222728U, 0xe8ab13f4bc06d741U, 0xb937e2d0d8d0fe24U,
  0xcca3c2dd0d0ad9d5U, 0xeb06c3000f12ec21U, 0x37354fde0137fca6U, 0x3beae7d307372cbeU,
  0x4ddec353917d11cU, 0xf6fa3b0547fb2f11U, 0x3126fc04eedbdc28U, 0xf71314038107c80dU,
  0x2fdc00fe42f82ceaU, 0xe00e0526df0e08f6U, 0xe94fe6260cec2e60U, 0xfa17e32562312226U,
  0xc120bc2ce7d517d5U, 0x41ef80bd1e328ffU, 0xf6e72b04521f2322U, 0xe7d651feddf7dbc3U,
  0xeb037f32431742d7U, 0xe9120dd4d6091208U, 0xc23fe2351dc5d047U, 0x26fef63455dd1588U,
  0x2ff81de2f90cdd2bU, 0xf3edc0e0af13d910U, 0x113c17b0342df2baU, 0x6ab1fb0f121113c1U,
  0xff24454211bf0e1fU, 0x39d33dfb0ee6d3e2U, 0xe29bca03041e2e5eU, 0xc814edf70303b0d0U,
  0xa12a0ce110ef3033U, 0xfa14e664f9f6f9d2U, 0xc6e222151c59efcaU, 0xd10d25f1fae1faedU,
  0x3d82d9fcb48af2e9U, 0xfea70465d22351beU, 0xee333cba54432cc1U, 0x1ed9b4eb9f16ebfbU,
  0x4c3b6ed8b0568e36U, 0x9c580b01e322a7adU, 0x4797d8de2bf9f3daU, 0x1b96054042f4c4a4U,
  0xa2d231fa5df6d99eU, 0xc052b2812e07cee5U, 0xe72f8e9693b12d06U, 0xa33233e0fea5cbbaU,
  0x8d6742daf693ed13U, 0x1bea19441e1d3af2U, 0x952dbfd21337e6bbU, 0xb92bf9b03ac14c2fU,
  0xcfbbc450ba07cbe7U, 0xb6e6a7c8f6679d2fU, 0xe1b098f10eebc594U, 0x4d2c22349a49ecf7U,
  0x3bf190d053c39ec6U, 0xc6865038fe679a6bU, 0xa2d65beb87cdf5f9U, 0x7cffec427f8c610U,
  0x404feeaaf8a29dcU, 0x299b22ac1ab42d19U, 0x10efa2b8adfccd42U, 0xeb258b1820c5cc19U,
  0xa8d71ada0cd903d6U, 0x3abca14a8eb12017U, 0xcfd6f8c01b01d40aU, 0xe70dd2e8f61cf993U,
  0x179df6da8dbfe2bcU, 0x16cf11eee55328edU, 0x3fee5fae141bd2fU, 0x3010d3a4f851f8ecU,
  0x90e4e51e55ed1326U, 0x27fa15f9330412b1U, 0xfcf61e44447fff0dU, 0x902017bce12bd2e3U,
  0x7d30034b232dcc20U, 0xe8f335144532c740U, 0xedf2512f570514fdU, 0x50f212e2365c2d77U,
  0x51ffd91b5a3d46dfU, 0xd01d1b723d253ff3U, 0xe134e02319006ff1U, 0x112e2b04e4ccfde8U,
  0x30d636c6e2dbfbf7U, 0xcece46c81ad3d106U, 0x1826f0cd0dd60c2cU, 0xdb001a3917ca0a12U,
  0xb802280afbe4cad2U, 0xdc2ff3406ba12f8U, 0xffc3cbe8d01afd2aU, 0x3e903c0feda21f3U,
  0x34d4cceec700c819U, 0xdaf6e12e17f1c9c5U, 0xe80a130717d416d7U, 0xc2052e05280e08f4U,
  0xcdcae434f2171807U, 0xd5c9be26052ef5d2U, 0xcf15e6d6bef4ea14U, 0x14cb4113e928dd18U,
  0xf52a7f07f5c01f30U, 0x28141de6ea1ee90cU, 0xf404ed5204fee70cU, 0xa436dd200a1feae4U,
  0x152830d41131d024U, 0x53eccf21dad301ebU, 0xcde5c0e5d63ec3f1U, 0x2e16f3db3221fd2aU,
  0x3feee5d84313d043U, 0x3108c3254fedd3b0U, 0xa2e7c7f6c7f0b04fU, 0xab1caa2c00ecc8b1U,
  0xe7f51c0528c52853U, 0xeda13706de1fb337U, 0x14f922d740ba3320U, 0xd112ad4bc3ffdb09U,
  0xbfada2fba30d88edU, 0x6d216fdaef3c5c3cU, 0x21d61fcaad05efc4U, 0x19df5c39b00deeeaU,
  0x3c293af91f005112U, 0x3a342af8b908a725U, 0xb7fadfb0bcaa0123U, 0xf547a9e37f17af01U,
  0xf65414112129e53cU, 0x5bc90dede33b3fdcU, 0xce0fd2fc2cb7612fU, 0x22ddb4163c2dec26U,
  0x162b4f3454fd02e8U, 0x2e9beaf1211e0634U, 0xe33a1cf658ba28b8U, 0xb6e10d0926dcd5e4U,
  0x3f3327f0d60fb5faU, 0x81de9fe0b2cdcccU, 0xcf0d24633d3351dU, 0x1e44e110eb3229e9U,
  0x3e3d8d84c2aff0cU, 0xc7ebcf0a2412dbb7U, 0x110bcd16253152c6U, 0xe6e4e931dc152ed4U,
  0xef033af4e74cbffdU, 0x45e1e5c73ceb002aU, 0xf5f4d66015c2181fU, 0x32bdee26c2d731cfU,
  0xf80221e73eb557f9U, 0xf819de073ad6e605U, 0x24ad7eff8cb01e1U, 0xd0d3c94404dcf8d1U,
  0xad02d9f42df9d0f1U, 0xdf1eedcbef4330c8U, 0x1505fce4dfed1de8U, 0x81bff7eae714c3U,
  0x15f63de7f5c9ea1cU, 0x22f2405fb100f12U, 0x11dffcf9e0f6f201U, 0xf0211df219e0e925U,
  0x3faecde0c6edbfb9U, 0x9d96fce39afbfbd3U, 0x54eaffe71a0fba82U, 0x1adffa9450b31948U,
  0xacd43d2f3cf95439U, 0xc71009dc9bb4c037U, 0xe83fe62cb88cc8cdU, 0x5098609e9c45ce95U,
  0xeccaadd4c59b59ddU, 0x1aa8cd9ae7f624f0U, 0xa497e98d18d14b98U, 0xe631c89851a230aeU,
  0x1fa5d3ac3c8fcf33U, 0xd126c6ed8e87bf0eU, 0x8a9b15dbd72a46f2U, 0xd5fd9d1afa28c7acU,
  0xac0dbf0bc881cbcfU, 0x34dfc2dba49cd526U, 0x3036e54bdbbcab19U, 0x3b013bd2008a5aceU,
  0x94afc82fa8a62cbdU, 0x21039302ace0c800U, 0x3e4f92ac33b2c0dfU, 0xc645e622fcccda45U,
  0xdf0bd3cee032ecc6U, 0x115ae12fdac9ec4dU, 0xb23b05d5e6b8323aU, 0xc3541aaaa3e1009U,
  0xc1d2e1f21bc213ecU, 0xeaf90630ebe5b2beU, 0x233b8242e0a50f2U, 0xaa4f37d8e90c6916U,
  0xfa2a0dd296540714U, 0xe0f4d92f13efbd4fU, 0x211d3a202e3bee11U, 0x2c6440af08471a36U,
  0xf1edf9377de4283aU, 0x8c091ac4313be5e5U, 0x19efe0eb055aede3U, 0xa50362fac79d2e1U,
  0xcd6f8bbff1ae5ecU, 0xdf32d7480f04e14dU, 0xcd1437f7f0aa28e3U, 0xa077ff201c6ec16U,
  0x36f0bb9a2fdadc28U, 0x8bd4c4b4dc26ba44U, 0xed65d31723f813f9U, 0x2414f401082dc649U,
  0x53fac5d6bc0f2c30U, 0xefa5ced4380809adU, 0xaedf203d193a3803U, 0x612807aa0dfaca19U,
  0xfac5dc3b21d5d0c2U, 0x24232409ec3439U, 0x44ead4f7fd662954U, 0xd7b83ed00f232f35U,
  0x27ef042816eeea03U, 0xc707db3113581eedU, 0xe12b11d30709b4f4U, 0x4e19c6b77f14dbf2U,
  0xe5e62c2625441e44U, 0x3a1ec2f10028ce20U, 0x28db27cbb5f55a24U, 0x76ffc5d4dcb6e646U,
  0x303da92e25aa32dbU, 0x14064f3ab628ffc1U, 0x56282cb2f415af10U, 0xefa9ff2d3ab9aeefU,
  0xd449fecdf0deb4daU, 0x2debf3eee7272927U, 0x9ed910985f1909f1U, 0x38cbe41da6c1f1U,
  0x115d92beb1b20f9U, 0xd612be34d7cd0df8U, 0x207fc930b20f920U, 0xf0ead108e1bfc3fcU,
  0xf4f42181c8ece1f9U, 0xc303f720a3dac0c7U, 0xed1cb6ce4ebdeed5U, 0x70f4a41adf1f3fd5U,
  0xf222f8ddeacabc1dU, 0xdfc61b132d2d49ddU, 0x7d212c0070c042aU, 0xd3166314fcfcf6abU,
  0xa22e4cc3698ef21U, 0xb32bbc1fdfe3e2ceU, 0xe956f2dfe4f71418U, 0x3f28e910b4c72ddbU,
  0x5b5f2214eb3314daU, 0xd437dc08e0e3f4d2U, 0xcd43150021f21c24U, 0x2d0b213744e0c9c0U,
  0x3c322912f49f4618U, 0xea20ea4903002927U, 0xde6bd23a243b02f5U, 0xf337192b110029d1U,
  0xbf34a53d2f08afe6U, 0x170dd3071b3d2735U, 0xe4f9c1ca3df75193U, 0xe22b970fbb2b5231U,
  0x4b16ccd1520bd3e3U, 0x54c2c0f0bc50c2eU, 0x48430402344cb8e9U, 0xffe5f930003bda1eU,
  0xb8d4e3d21c1ed0dfU, 0xed02de27d318e050U, 0xf39addef063f51c9U, 0xff9e54f0b5db58fbU,
  0xd1001310c75838f8U, 0x17310eb6fd4ef043U, 0x2df8e121b2b52524U, 0xb01322d12153f13fU,
  0xdd08c5fccfc40f3bU, 0x2c8f4e625513811U, 0x41b80915c331ecb5U, 0x40b8bd16d30dd1eaU,
  0x3a0ad7ea011ebd23U, 0x7f3716f444d9fffaU, 0xbc6fcf3fe93114eU, 0xd3c7ded6e21eae28U,
  0xf8fc13c903f7d613U, 0x29e47c01561c0d05U, 0xe6acbcc61f34b28bU, 0x39ee36f533eb22ecU,
  0x4dde20e1e5dda6e0U, 0x421fe313151e9b3cU, 0x29d52312e2cc0640U, 0x3521f1fb31480d52U,
  0xf115f498c5e4dfdbU, 0xcad05e210b3035ddU, 0xcb3981eee60ed7e3U, 0x1f2d53cd079ef30bU,
  0xe94003c22400aa0dU, 0x2ae4d93afeeeb613U, 0xd43101e01bd2f0e2U, 0x1b01e60237d4130aU,
  0x14013c9d25990cf2U, 0x22dc210cfe0ee999U, 0xcdadedf6fbdcdaf8U, 0x27680a05e4cbea49U,
  0xfddf1eae2abc16f6U, 0x7e91c7380c1fd015U, 0xab40e6a3c80b340cU, 0x8b75b1c76f336d1U,
  0xf5ac4e3cf4f43d10U, 0xb70b2bbde3b803eaU, 0xfdf820f70b26341fU, 0x1c9cafe407ceb4dfU,
  0xbae21b352830e8eaU, 0xae15d1eff11222b8U, 0x262319d107d5b2ffU, 0x12da341911bcc10eU,
  0x490f06250ccaf7ccU, 0xedde50cde604160dU, 0x99ceeef19ef5063U, 0x234badea04e8afdcU,
  0xc6382717db2b3dd0U, 0xc80ce417811effd0U, 0xc0f4f4c31749fca1U, 0xd8c3041611e0e2bfU,
  0x453ff7dccbd5121dU, 0xe52dfeb8d1cfe9afU, 0xdbc908e505ffc85eU, 0xf0cbec44c53aa801U,
  0xcd8f113060312edU, 0xd636d92bf2124a05U, 0x3214d019243621d1U, 0x3738fc3c13c000d2U,
  0x1f1be1f3251204f9U, 0xeb32f2ff1012dbU, 0xe7dff0eb0907373fU, 0x8f5ed0eaf20ad22U,
  0xdffa1c27091233ebU, 0x1eaad8ebba12e805U, 0x81d6f4b70a592202U, 0xc7ca30db19cc16b8U,
  0xdd39e2ebc501081aU, 0x50700db04fce9cfU, 0xec0f00091d2bf21fU, 0xfb3bdd12bff8eae1U,
  0xd0121df4f01d0f26U, 0x2dec0bf61a141e0eU, 0xe809db120acef601U, 0x27030502361b1524U,
  0xc6d7caded305eb13U, 0xf118fc29dd09fcf3U, 0x1edef1090df6d718U, 0x190f05f2d817090aU,
  0x10fc05ff4b0f05e4U, 0xd00a0e0a2928fff8U, 0x127f6212cfb222dU, 0xc810fb0fe60b2f06U,
  0x2e282eb2dcbef522U, 0x28db2eee02f9e71dU, 0x151d192dc3c5ee51U, 0xb444e30805fc1ef4U,
  0xde2241fb32c9daf6U, 0x3cadfc13beeaecf9U, 0xf030f8c0cae3b2c6U, 0xdfd4f4cf1fff06c4U,
  0x1825ccffc6f8beffU, 0xd12200efadbfce2U, 0xeed82d10faf6cb32U, 0x277695bfc9fb1633U,
  0xa6db31fe7ffaddeeU, 0x2c3f249ec0bf2a3U, 0x2bf1e8df1823ee32U, 0xac3a2ed7fe2c2f12U,
  0x4938dcd62907300fU, 0xeb07474bf9b8fc32U, 0xe73736e42f070015U, 0x274a311124042624U,
  0xeaffe1130412f30fU, 0xfd3439293d3ce108U, 0x2d2de536fd1a0e40U, 0x484cf5100a041bf5U,
  0xe144210a08141801U, 0xee8fbae0ae7422aU, 0x7bee952f4b84517U, 0xf617013abe12fdfdU,
  0xe7081e2819b94616U, 0xdd1a240ef9fcec31U, 0xbc03a914e0de09a5U, 0xc204252d19f228efU,
  0xb9cf1e2cb6e9d0edU, 0xeae311bfb0c303f7U, 0x52530281ca4edf3U, 0xeaeee94acbe603f9U,
  0xb516efd52b134837U, 0xf41edee8f2224913U, 0x12fcd12109d6cbe4U, 0x2addc6092cf517deU,
  0xab1cf4d10fbfcfdbU, 0xdd2dfdcc210deed2U, 0xfa01ee3ef42b1be5U, 0xcdee81153eead4f0U,
  0xf3c11da25cadaebU, 0x1e0020c0303ef322U, 0xd71e26e2c0abd3feU, 0xf91408c0e31343fdU,
  0x22b501eaa081360aU, 0xee2449a1f45219U, 0x373fc4d5bb161832U, 0x5406c3b89593bea1U,
  0xc73cb22d9ad7e51eU, 0x1242260838d7eb18U, 0xd0f3e6913b31bd88U, 0xaaaedb9df1e0f6b4U,
  0xd02036388dade6feU, 0xeb883bab1c4109e4U, 0xc0edcfa2e9c2e42aU, 0x4719c9d7e4879addU,
  0x3d5e4bc0ae30a3e1U, 0xa07470e8b93f521U, 0x8c05f0ad88dcbad4U, 0x3df7e83d9ef8cdb0U,
  0xa1f20cecea1144ffU, 0x4dc8bdaf54bb2fb6U, 0xc11199e036d40d04U, 0x8ff236a640e0041fU,
  0x8b2d1febe1fb3456U, 0xf3befc03472ef510U, 0x35e2b5aa9cf6a1ddU, 0x3f3ec9ead6a9a3d7U,
  0x258dddc848df00a2U, 0xbadbbc00b83db388U, 0x37e7302412c9e512U, 0xcc2433c412898156U,
  0xad5c04fe39b5dfb7U, 0xcbea43ac33ab2afbU, 0xff0c91480d074c8aU, 0xfc4c183ed1cced49U,
  0x285abecde6bb4eb6U, 0x1b9e603db2b3afadU, 0xf55b1a0305bccd94U, 0x1ca2d922f6d346afU,
  0xa59149432bd4026U, 0xc29b2e5840fd0c98U, 0x2d0f0526cfd2e0c3U, 0x5028d9936ccdd04bU,
  0xe72b9f1bd94b2598U, 0xa2c9bda9e157d196U, 0xea831d14f13c3fdU, 0x8b42e9a9a30fba0dU,
  0xd8efbfacb844632cU, 0x31f8f8ae3e0dc6e5U, 0x3e378cabfff8c1e9U, 0x2e18eda53d5cb433U,
  0xd02c883c45dc12ffU, 0xc94581dede2d15d9U, 0x1be82d1e200906cbU, 0xace9e007e901f32dU,
  0x8b91dd631df191dU, 0x21db48ee111135ceU, 0x2708d7cfba14b8c4U, 0x98e3e324eff8ebf8U,
  0xaee4fb2ec016452cU, 0xf9d4f2f318dd4b40U, 0x4221c6ea02c9242aU, 0x33ee1202a31f34efU,
  0xe708cbe0df454643U, 0xf349399034ec16d1U, 0xfa6e6c7a91cb8d0U, 0xc925c80e645a23e3U,
  0xdde8bc07c641e9f6U, 0xf01eab39e9f81b37U, 0xeac6f1a321dccb05U, 0x1536b8cc07322edcU,
  0xd70cdf0f131fc5bfU, 0xf3f93be22ff3cbf9U, 0x2ec7c541bbc0ca3eU, 0xda4903bacad1c7ffU,
  0x3c05fc35076e3f1bU, 0xc341f0fce7dab83dU, 0xec01f4d0f949f414U, 0xc32c97015d4cae2U,
  0x23f3ed45e7eb6bf6U, 0xc55a44f9c25a7f0aU, 0x28ee34cf0badf1e3U, 0x2db5015602e4d11eU,
  0x1c445e17e84e06e0U, 0x3224a1c4cfd8e2faU, 0xfe11db0e08275327U, 0x23a09b12562706c8U,
  0xe6f7393dced1571aU, 0x45d4c55e7f27eaaU, 0x2f301cc7dbebec0cU, 0xefdbab1226df3edcU,
  0xb3102f5ea30ccfaU, 0xbaebff1e1ad1cfU, 0x28ecdab437fbe20dU, 0xe794ef0b47c2bea1U,
  0x23cf82ba9f848c7U, 0x18f6c110285263cdU, 0xfe04ea291a10282fU, 0xea25b91eebbef9dbU,
  0x67be97470b142b28U, 0xccdd716de193317U, 0xcbe5e2bdfcdd3df4U, 0xef2bf2d7f8ede5b4U,
  0x24d70c433b59174cU, 0xe3dd1874f0cb541bU, 0x3bdf12deb64d1426U, 0xade05129111bbe39U,
  0x9e81d2dfd00f05d0U, 0xf1db3e71dc6d842U, 0xe0e590326ec13f9U, 0xd9b6dd2803493ee5U,
  0x2ef6f660e52eb7f2U, 0xe5516b635dee7d2U, 0x310bfe31e1cbff3aU, 0xa6dd02d4ed2f9f18U,
  0xe4f7223868495d46U, 0xf636c9f01105ce3dU, 0xbfe9201733372a5fU, 0x24e62f0be755dd07U,
  0xd9f8fc32a14b0ef5U, 0xcbec1bdece4cdf14U, 0x6d41432dae037d3U, 0xeffb2ed9f9efb132U,
  0xcff5d3c705e41519U, 0x22f8ef29f7dec7fdU, 0x1debcaf2cc1211e8U, 0xecfff8fc9e171508U,
  0xd2e3091a35131511U, 0x42cdd8072417f8f0U, 0x611cbe3fdd10211U, 0xb7281bfc2e222cf0U,
  0xea7fb812290610e6U, 0x1916fce11f19f507U, 0xe9abcbd12acaf531U, 0x1c03043bb5dffed7U,
  0xd20703fbccca1bf3U, 0xc070dc20437e31bU, 0xc308d7f922e3c7e6U, 0xc72a12211d0c4d1fU,
  0xb005e3ebf52b08eaU, 0xf406d312f501e925U, 0x1afbed1118c6c3fbU, 0x1ad837239ee00fcbU,
  0xe0f60f1620203ac7U, 0x39031ef6f7332721U, 0xd1eefce6e3e806ddU, 0xbb381e39303e38f6U,
  0x11f4fa1cf70bd9deU, 0xe102d5d92f0c30e0U, 0xef2928bc08041392U, 0x2f27e31340d41ff1U,
  0x47baddc13a34c6c7U, 0x1317fd5b35014554U, 0x12c0f627bbc3f536U, 0xd1f2c7e0af4ea05bU,
  0xde1f152e1ccb470dU, 0xdacef8ab23fb4951U, 0x2a1500d0eeccf6d1U, 0xa551f3ef40d224c2U,
  0xc3eddd4e1e2100d2U, 0xd12deeb1f3e3cd4U, 0xea30dbdcbbd89eceU, 0xcec8e3bdbed2ed01U,
  0x6bc6fff027d1520bU, 0xdefa19bedce0ddddU, 0xeacb4f34da2a441eU, 0xd3ed6ccc3bdb1a5cU,
  0x93077ff7f22429e6U, 0xab4c13d1714f4e1U, 0xdfe62517270419dcU, 0x1da22425e6390fe5U,
  0xf010dd2929eb0726U, 0xd6f444d8eafbcf0dU, 0x28131d1410010f02U, 0x252405c726e6a7f6U,
  0xc9e328d3fb81ef41U, 0x1f0634e3a7a2bee7U, 0xce400213d627f2eaU, 0x39cdb413afd25bd3U,
  0xf43bf8eb04d1e7e4U, 0x39cff0fb040e18e4U, 0xe8aed332ecf4bd23U, 0xd6e801b5ef12f616U,
  0xf4dadfc6d8b6d41dU, 0xd9db252aa8dd131fU, 0xabf3f2bff610f609U, 0x42defa33ebffffc0U,
  0xfc2cea0011bce800U, 0xe4eb10e33e2de108U, 0x9382a263f18ff1fU, 0xd5f9280443e12453U,
  0xc09dbf61aa9edecU, 0xe8060dcdd40414cfU, 0x504fe000af67123U, 0x230a2a08b9e9dd2cU,
  0x8195014df9e3c2ccU, 0xd5ecb71b4231eb55U, 0x2b6ddddfb0613d9U, 0xf90fcc58e025bc9U,
  0xbd02d4bac5aca2cU, 0x8f144fb540d4701U, 0x33ab4d59ea07f33dU, 0xe648f30b1660ca55U,
  0x9029a4291f2115c5U, 0xedfc1f06500f1efdU, 0x9c2c1cf534e25f3U, 0xf50dad190d2436daU,
  0x2a5200aa2d7d821U, 0xf4ec4017ef26f21fU, 0xdfeef23ef6891446U, 0x9e3004ce09cabcffU,
  0xc505fa04d5d6b6f2U, 0x2721341014f74d30U, 0xc8b437dbd34a07f0U, 0x49ced7fa160f3c40U,
  0x44b80355cdf1c343U, 0x1630208a3d001c2fU, 0x37a4143de5a02d43U, 0xdd5017ebd44ab21cU,
  0x5b03866d7f03d6ffU, 0xf34aa90711c4fdf2U, 0xb2be1ece5616fe61U, 0xeb19d44f82f0aeeeU,
  0x28354b3140e773e0U, 0xf1fed8c0dc6f1fe6U, 0xb7d6d0c62c26b2d0U, 0x32b3b25f70114e4U,
  0x3b1be01227055231U, 0xcc586401cd21a919U, 0xcab0e91e21b63403U, 0x33c2237927f9b835U,
  0x4d73063e20aff2bU, 0x2504f711ac5018c5U, 0xf900b8a91eb5d5a2U, 0x3e501b6010d86ac1U,
  0xdc043953d259e0fdU, 0xefd2d7d8dccfb30cU, 0xb6b0fad026b4ea21U, 0xdaabd65ab8d1cc13U,
  0x2809ea31eb1116dfU, 0xa80ff9212df81ed2U, 0xfe3c080e3be8b236U, 0x49632f5b160a2c1aU,
  0x2a0f281320ebed3fU, 0x40b3303cda30badaU, 0xfc0ebb1fe3cdd3d2U, 0xf699102217b7dcf5U,
  0x241a2e0716e2a333U, 0xcec5cfe83c2e9cf7U, 0x13023b3a5bc16ccdU, 0xfbdeb20f61e16c9U,
  0x37edca25bbec23cbU, 0xd9121cc8492732d1U, 0xea0907f24c3f1016U, 0x5b4be2c27c3428f7U,
  0x2b43e1cbd6ef2b07U, 0x14e9492850e3be05U, 0x37c95df12ae753e7U, 0x7ff815b93435dbe1U,
  0xb7162d06fcfe48c1U, 0x40ed1af5300e22e4U, 0x1b71df07e4f1e1beU, 0x19b9ce2d76f5d73eU,
  0x49efe9cca92ae1edU, 0x34fffa1fe5aa223eU, 0xc4212df3bed07314U, 0x64d5f643f1e2d901U,
  0x7de00000664U, 0x957fffffd5fU, 0x2770000067cU, 0x11afffffbc1U,
  0xfffff5af00000250U, 0xfffffea2ffffff3dU, 0x50f00000e5aU, 0x774fffff962U,
  0xfffffb32fffffa16U, 0x424fffffdc8U, 0xfffff79bfffffe2fU, 0xfffff79400000064U,
  0xfffffce7fffffe82U, 0x438fffffcf2U, 0xfffffed0fffff6c6U, 0xb86fffffed9U,
  0xfffffbf700000550U, 0xffffff7bfffffd10U, 0x10bfffffc21U, 0x180ffffff11U,
  0xffffff0cfffffe52U, 0xfffffc8900000354U, 0x62bfffff75dU, 0x263fffffe82U,
  0x21f000006fbU, 0x420000013bU, 0xfffffe9effffffd3U, 0xfffff7b3fffffe5dU,
  0xfffffe500000053aU, 0xfffffb4600000426U, 0x1f2fffffe4eU, 0x4de00000405U,
  0xeb01e7f70e01f0faU, 0xf1ee0be3fffe01ebU, 0xfc0be6f30a020deeU, 0xf8efeee9fb0805f0U,
  0x2fffef409f0f3f8U, 0xea0ae6fc16fbe609U, 0xf809f405fffcfd00U, 0x12fcfaf10ef20fecU,
  0xff000cf9fbebfce5U, 0xf80b02f80200fe0bU, 0x6e7f101ebece908U, 0xefecf000fffe0e05U,
  0xe6ff05ed01f8f00aU, 0xeafef101f80df014U, 0x5eb11fbfe0315f7U, 0xfff90d0312110deeU,
  0xb0cf7020a0a04ffU, 0xd01ecec0b0df9ebU, 0xf102e6f0fc0ff009U, 0xf011603e6100befU,
  0xe90809120bfb1405U, 0xe60d02080cf7fb02U, 0xf417f2ea02fc0710U, 0xfeeb0305f106030dU,
  0xfd0ff60dfeef0b08U, 0x6ebf1ea0dfb1410U, 0xf216ecf5ecf7f813U, 0xe80512faedf0eae9U,
  0x4f5070fed08ea09U, 0x4120a0103f604f4U, 0xf907fefefcffeff5U, 0xf80315f7eaf3ebf6U,
  0x6f7f1e8f3ece8feU, 0xfeeef90cfff5fd15U, 0xfafee9fa08110d07U, 0xfbff00f7ee0bfb01U,
  0xcf4f60e01031203U, 0x1613fafe0eeb0612U, 0xa0905f5e907f104U, 0x11eef6f9fa0dffeaU,
  0x14fdf5f6f5ea0511U, 0xee0d03f91101ebf0U, 0xf205f1ee03150815U, 0xf5160ef5eefbf2edU,
  0xf6fe0e0e0208fbf2U, 0x15eeebff11ebf211U, 0xfbeaecfef2ff0e06U, 0xa13ea010affeefeU,
  0x1809ebff1bf3e30aU, 0xf4f4e905f915e4U, 0xf2feeb001cf60e02U, 0x10f802e9f7ffe511U,
  0xfb010bf6ebec002aU, 0x14fa0cfa15f80f17U, 0xf9f8e9eef7fe1731U, 0xe1f8fcf7fa03240aU,
  0x90bec0fef2f0be1U, 0xf3fdf2e6fdf1e5dfU, 0xf2071607e6e4f722U, 0x21d0505dbedea0dU,
  0x2f60c1803ea0a0eU, 0xdf9fefcf00e00e9U, 0xa10ef0b2943de02U, 0xd21cf7ef10240e0aU,
  0x321000f4e3fb1009U, 0x16fce300ec0d0feaU, 0x65d0d02f611f42cU, 0xf817ff00e800f62aU,
  0xef8ec0d0304f8f9U, 0x9fbfaebf9eb1ff8U, 0xfc0e163e011407ffU, 0xe3fd0ffaee2df81bU,
  0x1101fa12f607d7edU, 0xb07e2fe15edf3f4U, 0xf4f4f8eed3ebf507U, 0xff01fc08e304df0eU,
  0xf1ebe8011af2fbe9U, 0xe404fd07f3f91020U, 0xfc120018fc1813ecU, 0xeceee901f904e4e9U,
  0x1aefe9faed05f90eU, 0xf400f9d700fdf5eaU, 0x2913f00018f20a0eU, 0xfe060521e6fde033U,
  0xf70314f820e8eff7U, 0xdf190ae6eef0f20bU, 0xeb17071b211af408U, 0xf607f8ee040f18feU,
  0x1507fe05ff12f9deU, 0xfd05e6e4f8191befU, 0xfaf8031b20fb0bU, 0xb01f422f2f410fbU,
  0x208f40de5f8f0f0U, 0x13d513f907040a1aU, 0xee13f9140b1df416U, 0xf90ee6edfbec0200U,
  0xe70526eeeaf60b0fU, 0xbe41b160721ff1cU, 0xdf3ecf9ec33f1e2U, 0xf72aecec0529fdd2U,
  0xef0314fa031814f7U, 0xf5120d170b22f902U, 0x8f5f1fa0601e7ecU, 0x16f2ee1ee7f308f6U,
  0xfe1cfaf4040b06f9U, 0x8191ff2f1011b18U, 0x2100fa13ee061515U, 0xd04ef1811fc07fbU,
  0x117150d1b1ee6f5U, 0xf3edfb0b0ff3f71bU, 0x10edebea0412efffU, 0xea0407140dfb1fe7U,
  0x2fc150dfdfc2200U, 0xef251514f90af400U, 0x1cf9e6fdf40a1414U, 0x710120cf1fbf4e9U,
  0x28fdf10501eff319U, 0x141d101f12000504U, 0xff07f30a140de7eeU, 0xe6f905fb0b19f0f2U,
  0xfd040c03ef12ecf6U, 0xfe11f6e909140a06U, 0xea1912ebde170410U, 0xe2e6fc070e0c0604U,
  0x7ee1009f7f1eefdU, 0xe7eb0803f90dec0aU, 0x13f6f1f81505070aU, 0xf914fffe12f2030cU,
  0xebee0df0ec12f910U, 0xec11f6f201f20b02U, 0x10f20f10dfed0ffeU, 0xfaea10f2f20107f7U,
  0x170af0f01efcf514U, 0x3f0170b0ae50d12U, 0xee0d12001cfa1108U, 0xe713e6041a10fa0bU,
  0xf80cebecfa0fe9f6U, 0xff0ff9ed1115f2f6U, 0xf805120ef011e6f1U, 0x7071618f20a05ffU,
  0x5edee04e4fbfaU, 0x40b1412ebf9ff19U, 0x140c0f030c17f717U, 0xf2ebec13f50b11fcU,
  0x4f1f3f11705ed06U, 0x9f7ea0f1205fc06U, 0xe212f003fb1af8fbU, 0xc1307e31921eadaU,
  0xb0c0302fc1111feU, 0xf30211f205110514U, 0x6ef13f21213ff0aU, 0xf500fce1f8e414U,
  0xf5f9f0fc16fb0c0fU, 0xf8020d0609f70905U, 0x4f6fcfde614e3f0U, 0x1a19e9f10d040df1U,
  0xcf918e40a00fef6U, 0xfa0bf20ff8efff0bU, 0x2020bfafd0af711U, 0x1a00fb17031af60cU,
  0xfafd08df010002efU, 0xfee700f01311de13U, 0xe912f9f0081ff0ffU, 0xa01f4f417fe11fdU,
  0xf205f6e4040c0c12U, 0x31aebeaec11130fU, 0xd12f702fe0f07edU, 0xf91ae512e9f211eeU,
  0x10f3f80ee90901ebU, 0xf1eaef03170602fbU, 0xef04f5faf00807f7U, 0xebee0ae61109ecf3U,
  0xef0aeee9f5eaf60aU, 0xef8ee07060bfa08U, 0xcf910f0fe06fb21U, 0xf70e111201f2ecf4U,
  0xbfb08f70ced10f5U, 0xedeef10ff3e6eddaU, 0xe9041407e2f6e717U, 0xeeef020bf41bf100U,
  0xf8f0fb0a01090d05U, 0xebecfdf2f90e0f06U, 0x50e060a07f5081dU, 0xe90b091006f3f110U,
  0x6efe607dd0df102U, 0xe802e7fcfceff706U, 0xfa080a1208fb0f03U, 0xe1206fbf904e6fcU,
  0xa09ece7e8f9ee1dU, 0x10113f5fcf3fc01U, 0x15ebf416ed0dfa0eU, 0xf4ef14060de8fa06U,
  0xe205f2fc00dc09ebU, 0xffb1818000b11f0U, 0x80def151cfa0fe1U, 0xedfa06f200030cf5U,
  0x5f9ec05041cfd0cU, 0x12f815ec0a10fa0cU, 0xef10f10f0219ea09U, 0x10ec140714fa0bffU,
  0xeffe061f1109f716U, 0x2f21014ee02f9f8U, 0xe8feecf8020cfef4U, 0xae903e4eee9041dU,
  0x1216effbefed121dU, 0x201ee1905f9180eU, 0x301eefdf208ef02U, 0xf6e1f9eef21716ddU,
  0xafa1b081f031d15U, 0xf1181f1400fff5f7U, 0xf21b0e0411e2100bU, 0x7f0ecec12f9f804U,
  0xfe04f3f1f4faf2e5U, 0x16e60c1809f40af1U, 0x1512ee050f0bf6f1U, 0x1e50a10ee0affedU,
  0xfd1411ea1212f507U, 0xf9021113fcfafe00U, 0xfb0ff307e0fd0dfbU, 0xf8130500f31d020dU,
  0xe20ee9e8f8e604d9U, 0xf0d0718f5eef609U, 0xdfff903f6fd10dbU, 0x41809f21b211a13U,
  0x1e5f206f112f20fU, 0xf9030c01fa0911f3U, 0xf3ea190d0cf2ee1bU, 0x82001e8031713f1U,
  0xcfb0105dff5e9f3U, 0xe3fde31cf60b0d0dU, 0x1aec02fcfefafafbU, 0xafd0e01e3070bfaU,
  0xd050d07f6f509f9U, 0xff0002f0f3f100e1U, 0xe8f5ff0405e405f9U, 0xfb0ef2f514fbeef5U,
  0xdfc0502051ef4fcU, 0x3fe0d03f817effaU, 0x405e51ee30818f6U, 0x101fff8ed09fcfaU,
  0xff07f2ee020be2f7U, 0xe7ece6010e01f0eaU, 0xff07e90cfde9fdf6U, 0x6f70bfaeefa0af0U,
  0x10f4f5f309fe0910U, 0xc0ce9f315f4fdecU, 0xcf104fff2ec11f3U, 0xcf0feeeeaeb0214U,
  0xf04f61008ef0df9U, 0x907e7f907ebffefU, 0x605ff000be9ea0bU, 0xee0cebf4f5f6fbf5U,
  0xeb0f0cf3fb040209U, 0xeefd0a0702f313f0U, 0x716f2f10105e9f8U, 0xf8fafa13fe08ecfcU,
  0xbfef2ee040a00f0U, 0xe20202eb140aeef5U, 0xf70505f8f1f11312U, 0xfded01ff060200f9U,
  0xee0dfff0fc0416edU, 0xf5fafb0203f1f8edU, 0xebffed0beceee701U, 0xf80e0ceee903f3e8U,
  0xff7f309f7fe101bU, 0x6ec0f23190bed02U, 0x9f5180ceff5f006U, 0x26ed15f709da030fU,
  0xbfc0c16df070ef6U, 0x1a0822fbf30e0a13U, 0xf6f20000f606f00cU, 0xf1270be4121d252dU,
  0xf2121422faf01fU, 0x2eeb140fed19e11cU, 0xeef0fb10f8001e05U, 0x1105fffb020fd2e1U,
  0x4f1fce7f30bf9ffU, 0xf4f10fec020503dbU, 0xe709f5e4e1de23ffU, 0xf91cfef30aecf522U,
  0xee18e701201705f5U, 0xfcef120018ffe40bU, 0xf3e41301d2f1fd01U, 0x10e102e7f3efd8f5U,
  0x8f803dd23fc060cU, 0xe20affdd0b13fbf4U, 0xe90f0ff6dd0e1207U, 0xfd26fdea0317fe1aU,
  0x19f6ffe91707fae9U, 0xfdf3e5f81816e711U, 0xb19eaf7d4dced1eU, 0xf604fe1bfd0ef61dU,
  0x1b1822d106ed0b1fU, 0xf51a12fc02050af3U, 0x40ffeeef3f937fdU, 0xa13f207fb121d0bU,
  0x3050112fa1ff21fU, 0xf7010cf21518f30cU, 0x131ef4f2f3f0de0eU, 0xf9201dfa1901040fU,
  0x14f71bf1ef0a1905U, 0xd81ff616100f150eU, 0xd0bfb05f5fc1deaU, 0x1cd7eb15f5ef04U,
